#version: 0.2
t h
t i
a n
r e
e n
th e</w>
i n
o r</w>
o n
o n</w>
o f</w>
e r
t o</w>
o r
ti on</w>
e r</w>
i t
a r
e d</w>
e s</w>
an d</w>
en t</w>
an y</w>
r o
i n</w>
a c
i s
a l
e c
m a
in g</w>
a l</w>
a t
l i
i s</w>
s u
e m
f i
f or
c on
o u
e s
a t</w>
l a
en ti
g re
o m
n o
_ _
l y</w>
i c
o s
en t
ma tion</w>
u r
p ro
for mation</w>
re s
b y</w>
al l</w>
c l
th er</w>
th at</w>
em ent</w>
I n
t y</w>
l e
a s</w>
s h
a b
d enti
u s
l e</w>
th is</w>
w it
fi denti
gre ement</w>
wit h</w>
u n
a s
om p
t r
d i
c e</w>
on s</w>
p ar
s i
w h
b e</w>
i l
e x
sh all</w>
C on
a ti
v e</w>
o ther</w>
c h</w>
In formation</w>
P ar
fidenti al</w>
it y</w>
p er
r i
su ch</w>
no t</w>
re c
a tion</w>
e p
at e</w>
d er</w>
it s</w>
A greement</w>
t er
v i
q u
is cl
Con fidential</w>
f or</w>
e re
a p
d ing</w>
t s</w>
e n</w>
t a
T h
__ __
e i
d e
n g</w>
ti es</w>
a n</w>
b e
t er</w>
Par ty</w>
p os
t ed</w>
es s</w>
ab le</w>
o u</w>
c omp
r an
R ec
d e</w>
l o
ec t</w>
ent s</w>
a g
iscl os
er s</w>
ti ng</w>
s t
i t</w>
p i
. .
an ce</w>
s e
m ent</w>
ou r</w>
C omp
ic h</w>
il l</w>
p li
ma y</w>
wh ich</w>
ac h</w>
i th
w ill</w>
f fi
ar e</w>
y ou</w>
R ep
m e
cl u
m it
ou t</w>
ac c
d u
Th e</w>
w ith
v is
re qu
in formation</w>
ec tion</w>
a m
s ac
Comp any</w>
b li
res ent
o c
di rec
us e</w>
i r
P ro
t ter</w>
at ed</w>
i pi
a d
re d</w>
m s</w>
sac tion</w>
res p
ati ons</w>
un der</w>
h a
re g
pro vi
Rec ipi
a gre
g h
e l
d er
o l
k no
in clu
v es</w>
resent ati
su b
d ed</w>
ro m</w>
par ty</w>
f rom</w>
kno w
bli g
T ran
ro u
a greement</w>
ou n
d g
ti ons</w>
or s</w>
p ur
il ity</w>
r e</w>
e t</w>
per s
em p
Tran saction</w>
resentati ves</w>
direc t
la tion</w>
e v
Recipi ent</w>
u l
con n
c i
v ic
P er
u p
c h
f in
in v
le dg
know ledg
conn ection</w>
le tter</w>
t h</w>
____ ____
re as
p ri
ha ve</w>
v er
on al</w>
d isclos
y our</w>
S t
ar y</w>
re p
v ing</w>
ri gh
an t</w>
ta k
su re</w>
er vic
a i
o blig
ou r
Rep resentatives</w>
es t
con s
h ere
m ents</w>
requ i
… …
c o
is e</w>
us in
inclu ding</w>
b le</w>
g n
y e
at es</w>
ter ms</w>
o t
as e</w>
with out</w>
D isclos
d is
u t
emp lo
S i
c able</w>
le g
L en
t ent</w>
usin ess</w>
ffi li
rou p</w>
un der
ur e</w>
reas on
.. ..
al ity</w>
e ach</w>
an d
ap pli
e g
pers on</w>
j ect</w>
or d
h as</w>
it t
o th
a f
at a</w>
G roup</w>
al ly</w>
ti ve</w>
p or
St re
w r
Stre et</w>
pro c
itt en</w>
wr itten</w>
me an
vis i
fidenti ality</w>
la use</w>
ac knowledg
d ate</w>
Si x
Six th</w>
i es</w>
provi ded</w>
es s
la w</w>
emplo ye
rec ei
a y
d ic
o w
oc u
pro visi
iscl o
` `</w>
m e</w>
S ervic
b usiness</w>
am e</w>
mit ted</w>
tr an
isclo sure</w>
resp ect</w>
con t
a v
ab ly</w>
appli cable</w>
o ffi
ffili ates</w>
' '</w>
u s</w>
in g
s e</w>
i f</w>
Disclos ing</w>
p ec
p l
m in
i m
ex tent</w>
pos e</w>
in t
direct ly</w>
b re
si gn
u th
ac ti
re f
o li
an c
w ise</w>
ere d</w>
er wise</w>
ti me</w>
em b
oth erwise</w>
uth or
mean s</w>
c om
t w
in to</w>
Rec ei
S up
f f
pli er</w>
requi red</w>
ta in
d isclosure</w>
oblig ations</w>
tr ac
bre ach</w>
ma de</w>
s o</w>
Per s
Sup plier</w>
offi c
par ties</w>
F ac
n o</w>
Par ties</w>
e ther</w>
Recei ving</w>
p re
ir d</w>
A c
i i</w>
enti al</w>
no ti
Len der</w>
pri or</w>
re s</w>
en ce</w>
ep t</w>
agre e</w>
F in
th an</w>
or t</w>
ex p
ot ential</w>
m i
tr ic
er e</w>
or y</w>
pos ed</w>
for m</w>
la r</w>
s ec
pec i
v ed</w>
a y</w>
reason ably</w>
righ ts</w>
con fidentiality</w>
D e
es t</w>
le v
r ap
m emb
con fidential</w>
su l
Servic es</w>
on e</w>
ti t
re n
s o
under tak
wh o</w>
du c
st an
ag rap
leg al</w>
ab ility</w>
Th is</w>
en d
T S
g i
re lation</w>
c our
th ere
be en</w>
li mit
d ocu
c us
par agrap
li ent</w>
ta in</w>
lev ant</w>
be h
al f</w>
w e</w>
beh alf</w>
g ag
t n
2 0
employe es</w>
ai la
c re
es si
disclos e</w>
ei ther</w>
fi r
re la
tr u
o ver
Fac ility</w>
f a
D ata</w>
p r
righ t</w>
al u
con trac
sub ject</w>
a uthor
P ur
C lause</w>
d o
com m
S u
stan ding</w>
A d
l d</w>
I n</w>
ac k
A g
ci al</w>
af ter</w>
a ffiliates</w>
E n
e res
cons ent</w>
ad vis
ei r</w>
th eir</w>
si mi
acknowledg es</w>
l is
R e
ou ld</w>
aila ble</w>
in s
acc ord
c er
d s</w>
o per
wh ether</w>
ma k
t u
v er</w>
on ly</w>
paragrap h</w>
comp any</w>
C lient</w>
ter min
ec tive</w>
oun t</w>
si ons</w>
Rep ort</w>
inv est
simi lar</w>
e en</w>
n e
…… ……
provisi on</w>
o d</w>
c ept</w>
th e
b u
in d
/ or</w>
de fin
o ti
and /or</w>
res tric
av ailable</w>
w ri
tain ed</w>
tw een</w>
memb er</w>
resp on
wri ting</w>
be tween</w>
v e
accord ance</w>
se t</w>
provi de</w>
re me
direct ors</w>
reg u
ut e</w>
en er
si ble</w>
ing s</w>
.... ....
l ess</w>
c la
disclos ed</w>
en gag
la w
Y ou</w>
rela ting</w>
over n
on -
co p
c e
en for
L E</w>
b t</w>
U n
ec u
d y</w>
g e</w>
agre es</w>
n u
________ ________
b ec
m ent
p otential</w>
Ag ent</w>
fi ed</w>
offic ers</w>
th ird</w>
oc k</w>
i al</w>
ur is
b as
uris dic
al l
anc ing</w>
as s
d o</w>
el l
n eg
f ur
re levant</w>
ap p
dis cus
an ies</w>
I f</w>
f y</w>
tu al</w>
c es</w>
ere n
p u
ar ran
sec ur
c ase</w>
acc ess</w>
TS LE</w>
i d
f ul
par t</w>
d es
por t
con di
E x
ec tr
is t
ectr on
with in</w>
for m
is ing</w>
c u
re t
c y</w>
urisdic tion</w>
bec om
w or
li c
tn ers</w>
ex ecu
c or
Pro posed</w>
Per mitted</w>
os e</w>
ati ng</w>
h ol
comp e
s peci
li ability</w>
d ata</w>
v ar
A n
T I
s ame</w>
R E
n or</w>
pur su
g overn
e ff
g ener
at ure</w>
be ing</w>
an k</w>
Fin ance</w>
li ance</w>
g h</w>
an cial</w>
E N
i c</w>
o b
direc t</w>
el ectron
pur pose</w>
provisi ons</w>
exp res
reason able</w>
discus sions</w>
Pur pose</w>
up on</w>
do es</w>
s f
em ents</w>
o k</w>
L e
regu lation</w>
ev er</w>
ap pro
d ers</w>
c ur
c lause</w>
' s</w>
o ve</w>
l ed</w>
vi ties</w>
b ro
oblig ation</w>
j urisdiction</w>
acti vities</w>
n ec
B l
ac t</w>
cont ro
W e</w>
al s</w>
i od</w>
reg ar
D ate</w>
ex cept</w>
is ed</w>
R ock</w>
bu t</w>
fi c
pu bli
neg oti
en ded</w>
i tion</w>
ab ove</w>
Bl ack
requ est</w>
i denti
m p
par ti
di t</w>
pursu ant</w>
p ay
Black Rock</w>
int eres
l ated</w>
th rou
lo w
N o</w>
F or</w>
ti onal</w>
pos es</w>
restric t</w>
con si
m an
throu gh</w>
m is
in directly</w>
pr acti
ev alu
fur ther</w>
us ed</w>
all bro
noti ce</w>
cla i
at ory</w>
ren t</w>
f oli
ment al</w>
W allbro
s es</w>
us i
Wallbro ok</w>
s ervic
e e
c ap
a w
In v
n on-
L L
foli o</w>
pur poses</w>
mak e</w>
d res
pro t
cl usi
i ties</w>
with standing</w>
ar ising</w>
proc ess</w>
cop y</w>
c oun
requi re
invest ment</w>
wh o
am ount</w>
per mitted</w>
ma ter
ar g
v en</w>
wh ere</w>
lo w</w>
employe e</w>
e du
here in</w>
ad di
limit ation</w>
or der</w>
e qu
fin ancing</w>
recei ved</w>
f ol
ci p
t ly</w>
pro f
tran saction</w>
si on</w>
de em
en sure</w>
In t
condi tions</w>
port folio</w>
T er
en e
Le tter</w>
su p
2 .
ref eren
1 0
i p</w>
app ly</w>
b o
comp ly</w>
C om
se par
Ad vis
li ver
pl at
p rep
agre ed</w>
Pers onal</w>
fol low
essi onal</w>
reg ul
Pro vi
C re
A ffiliates</w>
n ing</w>
deem ed</w>
o in
re sul
knowledg e</w>
du e</w>
o p
er c
u ro
w as</w>
comp anies</w>
publi c</w>
si di
pi es</w>
ex erc
gi ven</w>
nec ess
E uro
at er
Euro p
per form
Inv est
i li
D ocu
e w</w>
w ay</w>
S ec
var i
tru c
Recipi ents</w>
cons tit
Con fidentiality</w>
w ai
reme dy</w>
a rent</w>
ir e</w>
sh ip</w>
Provi der</w>
er red</w>
r u
Su b
prof essional</w>
w ould</w>
ent er</w>
Pro ject</w>
ex clusi
no t
th ose</w>
O blig
1 .
ar k
sul t
a r</w>
f o
con cer
per ty</w>
A N
undertak ing</w>
un ic
ch an
co pies</w>
E ach</w>
resp ective</w>
necess ary</w>
d es</w>
cour se</w>
M ater
tran sf
b ene
electron ic</w>
de bt</w>
law s</w>
negoti ations</w>
En g
d a
c ri
un less</w>
e e</w>
acc ep
it al</w>
di es</w>
duc t</w>
comp liance</w>
recei p
s our
al i
0 0
Cre dit</w>
tr a
ter m</w>
en tion</w>
offic er</w>
ma in
I N
t or</w>
ret ur
Ac t</w>
i l</w>
on g</w>
l os
regul atory</w>
receip t</w>
fir m</w>
L i
ev ent</w>
enti t
da ma
t o
S peci
ter n
Th ird</w>
h i
inclu de</w>
docu ment</w>
c an</w>
for e</w>
ow n</w>
Par tners</w>
us tr
est ro
sign ed</w>
docu ments</w>
r a
con ti
O N
bas is</w>
N ot
st at
e ar
a red</w>
m o
d estro
g ran
acknowledg e</w>
referen ce</w>
e es</w>
bene fi
tak ing</w>
L o
comp le
ro w
m on
Servic e</w>
be low</w>
l and</w>
ma t
oc i
for ms</w>
ou s</w>
fin ancial</w>
ord in
ac ting</w>
P arent</w>
comm unic
entit led</w>
ad dres
su per
wor k</w>
cor por
E R
oin t</w>
g es</w>
the y</w>
ent ly</w>
limit ed</w>
us t</w>
n either</w>
enfor ce
i z
defin ed</w>
p oli
secur ities</w>
v ered</w>
s y
inv ol
or row
there of</w>
ma il</w>
pro mp
respon sible</w>
st and
3 .
ili ties</w>
conti nu
regar ding</w>
w arran
ar d</w>
ref erred</w>
follow ing</w>
a ins
rep resent
ains t</w>
interes t</w>
becom es</w>
ec ted</w>
execu ted</w>
expres s
A r
An y</w>
addi tional</w>
ag ainst</w>
eff ect</w>
essi on</w>
ma in</w>
N ame</w>
g in
exp en
ch edu
it ed</w>
c os
exerc ise</w>
ay s</w>
consi der
appro pri
require ments</w>
ch ase</w>
ac y</w>
m b
or e</w>
n ame</w>
I T
prep ared</w>
e k</w>
advis ers</w>
sh a
ac qu
concer ning</w>
e ly</w>
Europ e</w>
o ing</w>
st o
perform ance</w>
enti ty</w>
Pro t
s t</w>
Sec ur
ind ustr
P otential</w>
Invest or</w>
an al
clai m</w>
se l
ist ered</w>
Advis ors</w>
l es</w>
ordin ary</w>
at t
Pers ons</w>
per iod</w>
cont emp
sac tions</w>
i als</w>
m ark
la tions</w>
A uthor
ful ly</w>
ma n</w>
anal y
appropri ate</w>
e t
L t
k ing</w>
dis p
author ity</w>
le ly</w>
the m</w>
me di
c ess
clu de</w>
so lely</w>
chan ge</w>
s er
resentati ve</w>
pos s
v alu
termin ation</w>
j u
al ty</w>
practi cable</w>
f un
reg istered</w>
ve ly</w>
20 1
y ing</w>
s tr
plat forms</w>
sub sidi
d em
pli ed</w>
benefi t</w>
e l</w>
resul t</w>
promp tly</w>
Prot ection</w>
servic es</w>
chedu le</w>
ter s</w>
Len ding</w>
u p</w>
Secur ity</w>
B orrow
con tained</w>
compe tit
who m</w>
vi ew</w>
fo reg
foreg oing</w>
ac e</w>
m it</w>
Com mit
an ts</w>
cu m
i gh
competit ors</w>
here of</w>
c ir
separ ate</w>
B ank</w>
………… …………
g ence</w>
Un der
Mater ial</w>
Not withstanding</w>
........ ........
poss ession</w>
S ell
constit ute</w>
Oblig or</w>
as sign
Disclos er</w>
here to</w>
u ar
industr ies</w>
Li mit
destro y</w>
Speci alty</w>
h el
requ es
cour t</w>
accep t
A l
it e</w>
contemp lated</w>
h ed</w>
contrac t</w>
tak e</w>
ag e</w>
du al</w>
govern ed</w>
1 9
T P
Int eres
as su
bas ed</w>
aw are</w>
requ ire</w>
LL C</w>
ent ered</w>
des cri
contro l</w>
be fore</w>
v al
re li
b ility</w>
k s</w>
inv es
S chedule</w>
R igh
es e</w>
S P</w>
ti on
noti fy</w>
er ing</w>
secur ity</w>
is ting</w>
n ature</w>
Ac c
oth ing</w>
N othing</w>
tran sactions</w>
b ank</w>
oun d</w>
transf er</w>
to g
wh at
TP G</w>
m ust</w>
De liver
ai d</w>
here by</w>
cre mental</w>
In cremental</w>
cons tru
sh ould</w>
se qu
al e</w>
constru ed</w>
ur ing</w>
cir cum
lo p
A s
is lation</w>
N o
Docu ments</w>
TS SP</w>
ag ents</w>
D i
le ase</w>
I I</w>
tog ether</w>
ac tion</w>
wai ver</w>
B usiness</w>
L eg
ffili ate</w>
fa il
d ence</w>
Borrow er</w>
de ve
hel d</w>
acc ur
ut ure</w>
exclusi ve</w>
C o
ec h
t en
express ly</w>
4 .
Len ders</w>
enforce able</w>
f uture</w>
is ition</w>
is su
ep end
de li
i ii</w>
retur n</w>
ow n
m ore</w>
pur chase</w>
parti cip
Righ ts</w>
our s</w>
c ol
c lic
reme dies</w>
hi b
O N</w>
lis h</w>
c a
se e</w>
ac ity</w>
nu mb
ju dic
int ended</w>
arg et</w>
mo di
2 0</w>
oper ation</w>
er ship</w>
proc ess
uar an
g n</w>
di vi
u m</w>
deve lop
contrac tual</w>
coun ter
C ap
iz ed</w>
anc es</w>
u res</w>
ind epend
defin i
T H
f ac
contro l
Limit ed</w>
tain ing</w>
ma tter</w>
gin al</w>
con sult
ut es</w>
r af
pos sible</w>
proc ee
ran ce</w>
ali d</w>
v ent</w>
af f
M EN
los s</w>
ass oci
tr i
Di rec
dama ges</w>
rep resentatives</w>
gener ally</w>
an other</w>
super se
circum st
ru le</w>
Sell er</w>
ti -
leg ally</w>
represent ation</w>
par tners</w>
enfor ce</w>
R eg
ar ds</w>
a ve</w>
pay ment</w>
under standing</w>
engag e</w>
e b
cap acity</w>
numb er</w>
1 5
av o
at eg
il l
I s
Re levant</w>
pers ons</w>
s ale</w>
Rep resentative</w>
se ts</w>
ic ally</w>
mater ial</w>
Lo an</w>
execu tion</w>
d ings</w>
ar ies</w>
0 0</w>
pl ace</w>
cos ts</w>
consider ation</w>
T arget</w>
A G
re hol
bo dy</w>
l ong</w>
C oun
ch as
engag ement</w>
en d</w>
know n</w>
li gence</w>
enti ties</w>
d ated</w>
compe tent</w>
ab les</w>
there with</w>
re view</w>
pro perty</w>
pre clude</w>
evalu ate</w>
an y
cur red</w>
Lt d</w>
fic ation</w>
T it
re at
gran ted</w>
mat ters</w>
j oint</w>
ord s</w>
p tion</w>
emplo y
n er</w>
ec tual</w>
v ent
ell ectual</w>
o ff
ent ering</w>
f ees</w>
expen ses</w>
addres s</w>
in corpor
invol ved</w>
accept ance</w>
an s</w>
Per iod</w>
in i
al so</w>
ful l</w>
b ound</w>
ow ever</w>
is tr
analy s
A ffiliate</w>
d it
or ts</w>
d ays</w>
6 .
d uring</w>
author ised</w>
Tit le</w>
for ce</w>
o ver</w>
b ack
ex clu
ren cy</w>
B y</w>
valu ation</w>
Fin ancial</w>
u l</w>
sour ces</w>
termin ate</w>
v en
man ag
fi c</w>
engag ed</w>
acc ept</w>
re lated</w>
ic e</w>
e mail</w>
A R
I S
se ek</w>
C h
pos al</w>
Under taking</w>
tra de</w>
du ty</w>
th ing</w>
mis sion</w>
arran g
ci es</w>
ati onal</w>
ati ve</w>
sh are</w>
ne l</w>
Ex cept</w>
mater ials</w>
at ely</w>
ul es</w>
b in
i gn
E valuation</w>
ti lis
memb ers</w>
on nel</w>
here under</w>
am ended</w>
defini tive</w>
ay ment</w>
ee p</w>
th ese</w>
ret ention</w>
t ech
advis ors</w>
oli c
k eep</w>
Author ised</w>
w ere</w>
or i
gh t</w>
par ts</w>
pers onal</w>
mean ing</w>
reques ted</w>
F un
re main</w>
n one</w>
d ec
continu e</w>
sign ature</w>
t ors</w>
col l
analys is</w>
cer tain</w>
Comp anies</w>
ou t
L I
fa ul
f ul</w>
TI ON</w>
end ers</w>
invest ments</w>
circumst ances</w>
id ance</w>
e d
agre ements</w>
Con trac
O F</w>
pro duct</w>
acc ount</w>
fir st</w>
proc ure</w>
respon si
comm er
fail ure</w>
not withstanding</w>
ha ving</w>
N oti
ti g
c ar
Si gn
T a
in dic
ic al</w>
chas er</w>
MEN T</w>
Eng land</w>
d ay</w>
t e</w>
em s</w>
l enders</w>
c al</w>
in divi
ta x</w>
in ter
tern al</w>
t om
or k</w>
RE E
sto red</w>
7 .
C ON
inclu des</w>
ear li
Eng lish</w>
d ou
Cap ital</w>
wh en</w>
pro posed</w>
ex change</w>
C ay
deli vered</w>
govern mental</w>
li able</w>
F I
D is
im medi
n dic
p ow
speci fic</w>
Cay man</w>
Ter m</w>
is se</w>
Su isse</w>
B o
ex isting</w>
ec ti
w eb
a u
Al l</w>
becom e</w>
pro hib
recei ving</w>
cont act</w>
earli er</w>
no w</w>
U R
disp ute</w>
5 .
de liver
provi ding</w>
so ever</w>
develop ed</w>
_ _</w>
Fin ancing</w>
cour ts</w>
avo idance</w>
Pro perty</w>
O R
dou bt</w>
vi leg
re tain</w>
mon th
vari ous</w>
N on-
Deliver ables</w>
1 0</w>
undertak ings</w>
speci fied</w>
O R</w>
str ateg
accur acy</w>
mak ing</w>
ir re
L a
who le</w>
r is
e f</w>
warran ty</w>
e ty</w>
clai ms</w>
associ ated</w>
D isclosure</w>
M c
su res</w>
oun ts</w>
t t
r ules</w>
recei ve</w>
ti l</w>
s pec
de termin
eff ective</w>
Sub ject</w>
us es</w>
main tain</w>
20 0
S ha
ser ve</w>
AG REE
A T
oper ate</w>
for th</w>
sub mitted</w>
sha res</w>
oper ating</w>
man ner</w>
20 20</w>
responsi bility</w>
d at
F ir
c ation</w>
s ave</w>
sy ndic
la s</w>
or al</w>
in j
prot ection</w>
month s</w>
ta il
m ul
1 2</w>
poli cies</w>
ti cl
s olic
pay able</w>
b it
U tilis
par tn
en h
M a
cus tom
bit r
Con t
tech n
3 0
un til</w>
mark et</w>
b on
Fac ilities</w>
so le</w>
Ter ms</w>
duc tion</w>
________________ ________
con firm</w>
disclos ing</w>
19 9
et ary</w>
author ized</w>
truc tion</w>
Pur chaser</w>
Coun ter
Con sult
im posed</w>
re e</w>
Pers on</w>
p ay</w>
si gn</w>
re ly</w>
g an
K in
descri ption</w>
con fir
ne y</w>
fi able</w>
gener al</w>
gi ve</w>
en cy</w>
r y</w>
independ ently</w>
electron ically</w>
th en</w>
contrac tors</w>
si de</w>
h owever</w>
, 00
A L</w>
a de
im plied</w>
EN TI
identi fy</w>
in curred</w>
p aid</w>
pri vileg
ro le</w>
is t</w>
Mc Kin
undertak e</w>
as sets</w>
T o</w>
N D
immedi ately</w>
subsidi ary</w>
A m
sec re
Docu ment</w>
faul t</w>
ecti vely</w>
pow er</w>
s en
Reg u
sub sequ
consult ants</w>
ade qu
lic en
c ement</w>
sy st
tion ship</w>
cap ital</w>
7 5
ti s</w>
Ac qu
su rance</w>
f act</w>
pr in
inves ting</w>
expres s</w>
rep ort</w>
poli cy</w>
rec ipi
A p
dat ab
vent ures</w>
de la
em n
No var
E R</w>
ind emn
Un ited</w>
Novar tis</w>
on d
ob tained</w>
evalu ating</w>
rehol ders</w>
tak en</w>
what soever</w>
su c
U K</w>
in e</w>
Ta x</w>
stand ards</w>
id ity</w>
sour ce</w>
inv est</w>
Consult ant</w>
cu lar</w>
ist ence</w>
bin ding</w>
de tail
deliver y</w>
s tric
10 0</w>
identi fiable</w>
Direc tor</w>
En gag
require ment</w>
c reas
strateg y</w>
sub -
syndic ated</w>
9 .
vari ety</w>
re tained</w>
reli ef</w>
S ection</w>
un c
pur por
parti cular</w>
p res
plat form</w>
ac h
in form</w>
or gan
ac tual</w>
R el
con f
Rel ated</w>
Par t</w>
ill ary</w>
ec ts</w>
t re
regu lations</w>
re l
counter parts</w>
employ ment</w>
e y</w>
E C
Leg islation</w>
P r
datab ase</w>
reas on</w>
pri etary</w>
Fir m</w>
p er</w>
ins truc
hol ding</w>
docu ment
cer ti
1 1.
con tr
me a
pre judic
W ith
E S</w>
inv o
E D</w>
ag ent</w>
Pro cess
pre vent</w>
per form</w>
mul ti-
it ably</w>
w is
multi- strategy</w>
incorpor ated</w>
al es</w>
ing ly</w>
suc cess
comp u
Commit ment</w>
ex as</w>
T exas</w>
in ev
inev itably</w>
t ee</w>
Cont ro
enh ance</w>
La w</w>
D al
CON FI
ten ess</w>
separ ated</w>
ex istence</w>
Interes t</w>
proc edu
procedu res</w>
ref l
W h
in direct</w>
AGREE MENT</w>
Ar ticl
un enforceable</w>
raf t</w>
comple teness</w>
2 100</w>
procee dings</w>
hol d</w>
f tw
McKin ney</w>
Acqu isition</w>
ftw are</w>
Dal las</w>
ir s</w>
gener ated</w>
privileg e</w>
ne ed</w>
gre g
mea sures</w>
interes ts</w>
i on</w>
ep s</w>
AN D</w>
n am
modi fied</w>
ye ar</w>
th ere</w>
du ly</w>
equ ity</w>
im um</w>
and s</w>
el ection</w>
H E
D ENTI
Sub sidi
le as
prejudic e</w>
CONFI DENTI
superse de</w>
In ter
st eps</w>
ob tain</w>
subsidi aries</w>
g ro
wh ose</w>
communic ation</w>
3 3
3 0</w>
vi r
offi ce</w>
an i
A L
c are</w>
I t</w>
Pers onnel</w>
fi de</w>
est ab
equ i
S O
inj unc
bon a</w>
Engag ement</w>
y er</w>
non- contractual</w>
a d</w>
undertak es</w>
ess es</w>
ex t</w>
p ly</w>
inv alid</w>
dis cre
c illary</w>
v oc
off er</w>
th reat
Utilis ation</w>
g er</w>
Ad dres
servic e</w>
sup plied</w>
ab out</w>
ad min
An cillary</w>
8 .
dama ge</w>
am end
tran s
R es
contr ary</w>
A TION</w>
re main
ar i
in ternal</w>
ori ginal</w>
su m
assign ment</w>
vic e</w>
l er</w>
Commit ments</w>
r ing</w>
ar s</w>
requi res</w>
recipi ent</w>
back up</w>
LL P</w>
ag greg
ar bitr
adequ ate</w>
b usin
P ri
c as
con taining</w>
clic k</w>
G ener
it ory</w>
communic ations</w>
s ati
om is
exclu ding</w>
j o
detail s</w>
su ffi
defin ition</w>
coll ectively</w>
lo g
addi tion</w>
R ev
busin esses</w>
re ad
discre tion</w>
irre voc
e -
N ew</w>
G uaran
li mit</w>
indic ation</w>
arrang ement</w>
des ign
T wit
tri bu
ha d</w>
Gener al</w>
A C
compu ter</w>
ti n
commer cial</w>
s ection</w>
pro prietary</w>
B ri
Com m
L ond
purpor ted</w>
R O
rec ords</w>
e w
Twit ter</w>
e f
IT Y</w>
s ing
i or</w>
ti m
rec or
con tain</w>
C a
spec tive</w>
con fi
f ra
Interes ted</w>
h s</w>
in d</w>
enti re</w>
Lond on</w>
1 1</w>
sub mission</w>
b ed</w>
threat en
D P
15 00</w>
ol ving</w>
bo th</w>
con duct</w>
s s</w>
p en
Int ellectual</w>
s ed</w>
g uaran
dela y</w>
ass ent</w>
ou se</w>
aggreg ate</w>
tw o</w>
as sign</w>
M an
n is
evalu ation</w>
Contrac ts</w>
it able</w>
ini ti
ec ting</w>
With out</w>
Counter party</w>
end or</w>
s ent</w>
ND A</w>
it ation</w>
ac hed</w>
threaten ed</w>
g o
so ftware</w>
ris k</w>
oper ations</w>
l ands</w>
emb er</w>
re pos
repos itory</w>
ef for
clic king</w>
cre dit
kno w</w>
ic on</w>
h ar
law ful</w>
Is su
speci fic
leg islation</w>
B u
prohib ited</w>
ca use</w>
P AR
re liance</w>
O p
cur rency</w>
confi dence</w>
ch arg
rela tionship</w>
in surance</w>
port un
condi tion</w>
st ock</w>
law fully</w>
am ounts</w>
under sto
understo od</w>
admin istr
Rev olving</w>
En ti
own ership</w>
fra u
aff ect</w>
e an</w>
acqu isition</w>
ani el</w>
W ales</w>
what ever</w>
fa r</w>
creas e</w>
O ri
E ff
- based</w>
sel f</w>
acknowledg ment</w>
W an
S T
D aniel</w>
restric tions</w>
rep res
r up
read y</w>
St at
rep orts</w>
ad v
sign ing</w>
paragrap hs</w>
des truction</w>
al ready</w>
s oci
P os
or ity</w>
sha reholders</w>
De ar</w>
C ur
comm on</w>
super vis
nam es</w>
fur nis
Wan ek</w>
inves tig
qu i
199 9</w>
prot ect</w>
any thing</w>
di ligence</w>
st ated</w>
effor ts</w>
process ing</w>
Europ ean</w>
c lient</w>
u e</w>
pri v
As sign
manag ement</w>
cop e</w>
20 1</w>
ag ency</w>
val idity</w>
Un less</w>
ye ars</w>
pro duc
ac tions</w>
Ori ginal</w>
web -based</w>
el l</w>
li k
f r
ex pi
H ouse</w>
i tions</w>
do main</w>
e m</w>
Ad di
an n
not es</w>
75 201</w>
Lo ans</w>
so on</w>
irrevoc ably</w>
expen se</w>
control led</w>
prin cip
issu ed</w>
Su ite</w>
sup ply</w>
V endor</w>
d ered</w>
c anc
t ur
inter pre
acc oun
g u
R I
IN G</w>
p h
instruc tions</w>
b ur
i de</w>
Contro l
i v</w>
indivi dual</w>
direct or</w>
TH E</w>
P O</w>
techn ical</w>
cla uses</w>
de le
sing le</w>
S .
n ess</w>
comp li
v al</w>
der i
conf lic
v o
there to</w>
____ __
Noti ce</w>
dg e</w>
Mater ials</w>
im pl
res id
mak es</w>
sub stan
e vi
Bo x</w>
disp utes</w>
equi val
particip ation</w>
u tion</w>
G overn
in after</w>
p rec
on str
dem onstr
Issu ing</w>
document ation</w>
A S</w>
H ol
Pro posal</w>
tain s</w>
identi fied</w>
fic ate</w>
St and
. .</w>
,00 0
follow s</w>
1 -
por tion</w>
m ed</w>
de al
min ation</w>
SO W</w>
Rep orts</w>
e ds</w>
De fault</w>
ta x
en s
cos t</w>
here inafter</w>
ab ilities</w>
G r
se tt
S y
v alid</w>
los ses</w>
N or
sub s
Man ag
y ed</w>
Addi tional</w>
syst ems</w>
h e
dem and</w>
K ing
rel ates</w>
De fin
Con nec
w ell</w>
it self</w>
er y</w>
ch ar
E U</w>
As soci
stric tly</w>
F OR
do m</w>
Articl e</w>
Connec ted</w>
s om
G DP
s ol
partn ership</w>
GDP R</w>
c al
exclusi vely</w>
en de
c ul
N either</w>
Leg al</w>
int ellectual</w>
credit or</w>
De bt</w>
W ork</w>
Process ing</w>
pay ments</w>
ende av
gi ving</w>
at er</w>
Y ours</w>
l en
Wh ere</w>
op tion</w>
Is lands</w>
not e</w>
supervis ory</w>
u al</w>
g roup</w>
con duc
10 .
- up</w>
tern ational</w>
er t</w>
pre vi
o w</w>
ad ver
noti ces</w>
Cur rency</w>
l ac
Govern ing</w>
ref er</w>
estab lis
cont ext</w>
de b
substan ti
s it
s cope</w>
op ini
descri bed</w>
ce as
ear ch</w>
di ff
cor respon
co vered</w>
organ is
S I
t ation</w>
equival ent</w>
constit utes</w>
b an
K Y
C L
equ al</w>
Ter mination</w>
eren ce</w>
ow ed</w>
l ing</w>
Gr and</w>
prot ective</w>
fun ding</w>
P M
resid ent</w>
practi cal</w>
Sha res</w>
Guaran tor</w>
C er
HE RE
o ds</w>
Ag ents</w>
................ ................
Regu lation</w>
C O
gro un
continu ing</w>
t y
1 2.
Subsidi ary</w>
any one</w>
1 10
enforce ability</w>
se l</w>
ex am
con tent</w>
U p
A v
equ itable</w>
KY 1-
wis h</w>
amend ment</w>
F or
a m</w>
U S</w>
ca used</w>
N O
inclu ded</w>
demonstr ate</w>
U g
PM G</w>
K PMG</w>
Sign ature</w>
Ug land</w>
M e
L ic
KY1- 110
p at
princip al</w>
specific ally</w>
indivi du
ac ts</w>
n ed</w>
f all
exerc ising</w>
P lease</w>
Ac knowledg
judic ial</w>
30 9</w>
201 9</w>
k ind</w>
ins tru
cont ents</w>
consider ing</w>
neg ligence</w>
King dom</w>
ti cip
cas h</w>
i d</w>
analy ses</w>
Lt d
ot al</w>
leas t</w>
res earch</w>
tr y</w>
represent ations</w>
referen ces</w>
A T</w>
un authorized</w>
su r
som e</w>
Pro ce
oblig ed</w>
att ached</w>
superse des</w>
R ate</w>
KY1-110 4</w>
O r
co -
out standing</w>
ci ally</w>
it h</w>
arbitr ation</w>
com mit
tri b
L E
consi der</w>
6 /
Par tn
secre t</w>
mat e</w>
D ay</w>
portun ity</w>
us ing</w>
por t</w>
AL ITY</w>
un authorised</w>
lis ted</w>
em ent
A s</w>
o f
Inter creditor</w>
Assign ment</w>
m ut
j ority</w>
ad vice</w>
Q u
st u
re lease</w>
c ould</w>
ON S</w>
Fun ds</w>
X X
corpor ate</w>
2 1</w>
li ents</w>
Pri v
In crease</w>
suffi ci
con sum
g a</w>
indemn i
cor rec
c ep
L aw
warran ties</w>
Ca sh
subsequ ently</w>
S S</w>
acqu i
Re f
I S</w>
CONFIDENTI ALITY</w>
ut ory</w>
O ther</w>
on d</w>
Acc ord
res er
li abilities</w>
dec is
substanti ally</w>
adv ance</w>
S en
Ltd .</w>
V ent
W HERE
Eff ective</w>
en jo
car ri
Tran sf
il legal</w>
am pi
appro val</w>
st and</w>
mi ght</w>
C our
h ow</w>
A ve</w>
A M
control s</w>
- -</w>
mp lo
dis tribu
Bri dge</w>
in form
c lients</w>
ci ary</w>
becom ing</w>
enjo y</w>
stat ements</w>
g a
contrac tor</w>
Stand ard</w>
E mplo
t e
V AT</w>
gran t</w>
f ying</w>
ampi ga</w>
rep resentative</w>
invol ving</w>
custom ers</w>
char ge</w>
L .
out side</w>
cre ated</w>
at or</w>
stat utory</w>
Up on</w>
de f
sub mit</w>
parti al</w>
p le</w>
ith fully</w>
comp i
assu me</w>
f ee</w>
M D
Ac coun
pl es</w>
lik ely</w>
T ra
subsequ ent</w>
fa ithfully</w>
en c
dem n
1 4</w>
direc ted</w>
regar d</w>
In demn
w ords</w>
i gn</w>
consi dered</w>
comple te</w>
T S</w>
________________ ________________
wor king</w>
custom er</w>
under stand
N E
invo ice</w>
c ess</w>
under stand</w>
express ed</w>
1 3.
Fun d</w>
for ma
recei ves</w>
evi dence</w>
secre ts</w>
s p
or ally</w>
I T</w>
con sequ
Bu yer</w>
solic it</w>
gi ble</w>
tim es</w>
on g
ins ert</w>
y s</w>
there in</w>
stat us</w>
Z ampiga</w>
om in
cu r</w>
reg istr
lo c
D ays</w>
t ment</w>
x imum</w>
s af
appli es</w>
O S
guaran tee</w>
prot ected</w>
In ternational</w>
own ed</w>
independ ent</w>
I C
1 3</w>
la n</w>
D E
per mis
C or
frau d</w>
Invest ment</w>
administr ative</w>
ev er
M ark
Comp le
A tt
M o
stand ard</w>
sati sf
TI ONS</w>
S ER
r ate</w>
me an</w>
com e</w>
ic es</w>
ep t
conflic t</w>
F ur
tit le</w>
sub contractors</w>
du ce</w>
conn ected</w>
raf ting</w>
aila bility</w>
Pur chase</w>
e ting</w>
d raft</w>
d r
S p
determin ed</w>
ti c</w>
fin al</w>
B re
stat ement</w>
Ar ran
rup tion</w>
fun ds</w>
acqu ire</w>
resul ting</w>
ir ing</w>
Sy st
Sign ed</w>
Accord ingly</w>
con tains</w>
S h
enti ng</w>
sup pli
omis sions</w>
Re qu
pl ans</w>
si tive</w>
stu dies</w>
solic itation</w>
pers onnel</w>
l in
ex per
V an
B ase</w>
pro spective</w>
appli cation</w>
C M</w>
aff ected</w>
addres sed</w>
M ar
injunc tion</w>
here after</w>
gre e</w>
or t
me th
ess a</w>
af fa
endeav ours</w>
affa irs</w>
Van essa</w>
Defin itions</w>
previ ous</w>
tre at</w>
reques ts</w>
comp ens
fin ance</w>
arrang ements</w>
retur ning</w>
pre v
S irs</w>
ma ximum</w>
Co de</w>
ann oun
up date</w>
deri ved</w>
cre dit</w>
T Y</w>
sit es</w>
Regu lations</w>
furnis hed</w>
er i
e ts</w>
de gree</w>
licen se</w>
Comple tion</w>
…………………… ……………………
per mit</w>
th er
Ap pli
deal ing</w>
ell ed</w>
dr aw
D raft</w>
refl ect</w>
tre ated</w>
1 1
Sen ior</w>
P resident</w>
publi c
l ying</w>
di c</w>
D IS
instru ment</w>
Stat ement</w>
vi o
tig ation</w>
suffici ent</w>
rep lac
groun d</w>
un lawful</w>
issu e</w>
h is</w>
f ree</w>
Emplo ye
res ol
UR E</w>
no thing</w>
medi a</w>
log y</w>
A gre
t -
T otal</w>
coun sel</w>
compi lations</w>
Non- Disclosure</w>
Res tric
2. 2</w>
as signed</w>
sen sitive</w>
rehol der</w>
commer cially</w>
E vent</w>
B N
re im
reim bur
fun d</w>
co ver</w>
s ch
el lation</w>
ex ten
Con di
C la
success ors</w>
Ma jority</w>
valu e</w>
si der</w>
accept able</w>
Ref erence</w>
confir ms</w>
m its</w>
cl os
inform ed</w>
assign s</w>
S cre
l ine</w>
U S
Lic en
A B
in t</w>
du ties</w>
cop y
D es
ver s
non- confidential</w>
k er</w>
sur vi
process es</w>
la st</w>
ili gence</w>
D iligence</w>
C E
- how</w>
Partn er</w>
P an
Nor dic</w>
suppli ers</w>
att ention</w>
tur n</w>
th ree</w>
ch ec
perform ed</w>
charg es</w>
M IT
lo cal</w>
tra ding</w>
correc t</w>
E l
Addres s</w>
exam ple</w>
Oblig ors</w>
O ffi
wai ve</w>
diff eren
oc cur
con sul
ce ase</w>
Deliver able</w>
os t</w>
ist ance</w>
Law s</w>
procee ding</w>
opini on</w>
ari ly</w>
,00 0</w>
t ed
rec ru
ex clude</w>
de al</w>
accord ingly</w>
P RO
J urisdiction</w>
recor d</w>
prep ayment</w>
em or
acc or
min imum</w>
lic ence</w>
ass istance</w>
Th ese</w>
Disclos ees</w>
B el
vi ew
fall ing</w>
dit ors</w>
know -how</w>
th ir
limit ations</w>
indemn ity</w>
ci ples</w>
transf erred</w>
I N</w>
Condi tions</w>
Pos sible</w>
modi fication</w>
pre par
permis sible</w>
coun try</w>
1 5</w>
survi ve</w>
ted ness</w>
govern ment</w>
deb tedness</w>
1 4.
t ants</w>
repres ents</w>
initi ate</w>
ex ce
en able</w>
V ice</w>
A D
resul ts</w>
p resent
indemni fy</w>
T ER
be li
there fore</w>
n omin
comple tion</w>
al low</w>
a ut
tit ute</w>
ent ers</w>
att or
Requ est</w>
de l</w>
vir on
st ate</w>
issu es</w>
assu rance</w>
ti me
injunc tive</w>
im p
il it
Direc tive</w>
practi ce</w>
p arent</w>
o ma
counter part</w>
Ex isting</w>
e ing</w>
W arran
cur rent</w>
O w
enti on
comple ted</w>
destro yed</w>
Tra de</w>
/ D
Employe e</w>
DIS CL
t reat
lo itt
conduc ted</w>
z z
ti s
noti fied</w>
car ry</w>
mon ey</w>
c o</w>
O n</w>
… …</w>
tax es</w>
produc ts</w>
it ment</w>
certi ficate</w>
leg ality</w>
interpre tation</w>
duc ed</w>
co ver
ass ist</w>
loitt e</w>
j us
go od</w>
e ar</w>
c ations</w>
De loitte</w>
201 8</w>
pl ac
per man
en ding</w>
W ai
Syst ems</w>
recru itment</w>
omis sion</w>
Rep ayment</w>
Enti re</w>
A ve
/D CM</w>
remain ing</w>
exclu ded</w>
enti ons</w>
differen t</w>
Contrac t</w>
su ite</w>
oc curred</w>
lo an</w>
W or
2 4</w>
s truc
h ment</w>
acqui red</w>
Re turn</w>
ne w</w>
ex ec
syst em</w>
vio lation</w>
s s
l ater</w>
fi le</w>
1 9</w>
partn er</w>
No v
Cash /DCM</w>
B OR</w>
l a</w>
individu als</w>
sup pl
disclos es</w>
au dit</w>
agre eing</w>
Not e</w>
DISCL OS
web sites</w>
u r</w>
ass ess
T O</w>
ur ation</w>
appro ved</w>
3. 1</w>
reli ed</w>
pu b
ful l
li tigation</w>
ar k</w>
ar ise</w>
determin e</w>
Transf er</w>
T A</w>
mean ings</w>
__ _</w>
sati s
assu mp
mis es</w>
g ent</w>
D u
Con fir
regar ds</w>
public ly</w>
Addres see</w>
aut oma
ai l</w>
1. 2</w>
provi des</w>
W IT
CONFIDENTI AL</w>
C ar
k ey</w>
j ects</w>
200 6</w>
co ven
Ave .</w>
, 33
decis ion</w>
Pan the
1 7</w>
disclos er</w>
as ter</w>
Panthe on</w>
2. 3</w>
t en</w>
fi ve</w>
cons ents</w>
accep ted</w>
C A</w>
warran ts</w>
servic ers</w>
Ex hib
in applicable</w>
b est</w>
K ong</w>
ty p
termin ated</w>
Author ized</w>
chan ges</w>
acc ru
Li ability</w>
rep ayment</w>
o d
Su ch</w>
H ong</w>
under signed</w>
enfor c
acc ounts</w>
p ass
or ies</w>
Comm er
registr ation</w>
om ic</w>
d ep
particip ant</w>
Pr acti
Bre ach</w>
rec o
h es</w>
advis er</w>
Y ork</w>
su ff
sen ior</w>
restric tion</w>
noti fication</w>
f t</w>
advis or</w>
FOR M
treat ment</w>
pr ic
ex pec
accoun ting</w>
Hol ding</w>
For m</w>
en cement</w>
M P
an ti-
in fr
M on
m ary</w>
cap able</w>
TH IS</w>
provi der</w>
priv ate</w>
carri ed</w>
Pro spective</w>
provi ders</w>
full est</w>
priv acy</w>
ob taining</w>
announ cement</w>
i ence</w>
K K
compli ed</w>
in side</w>
M A
H owever</w>
a k
1 3
deli ver</w>
and atory</w>
______ __</w>
KK R</w>
AT E</w>
u bli
Proce eds</w>
s in
pre -
c ent</w>
Exhib it</w>
irre par
ow e</w>
em e</w>
k ept</w>
ju dg
sett le</w>
negoti ation</w>
mut ual</w>
in a</w>
i le</w>
Control ler</w>
n or
N AM
Am ount</w>
AN Y</w>
6 7
our ce</w>
Recei ver</w>
t ow
over y</w>
2. 1</w>
particip ate</w>
confir mation</w>
Rep resent
zz an
zzan ine</w>
In f
BN P
Arran ger</w>
co m</w>
Manag ement</w>
pro per</w>
Sell ers</w>
Am end
pos ition</w>
pos als</w>
eg r
clu ded</w>
d en
Cer ti
an nu
vir tu
mark s</w>
reimbur se</w>
rec over</w>
fac ility</w>
ention ed</w>
copy right</w>
compens ation</w>
S E
BNP P</w>
vari ation</w>
tow ards</w>
e ding</w>
Bel gi
Advis ory</w>
ur al</w>
pro per
pres ent</w>
no logy</w>
in sider</w>
back -up</w>
b er
St ates</w>
Noti ces</w>
NAM E</w>
Av ailable</w>
1 6</w>
virtu e</w>
qu es
app oin
ver sion</w>
cons oli
v ity</w>
e ve</w>
Co vered</w>
success or</w>
lev el</w>
co- operate</w>
El ectron
6. 1</w>
reco gn
pos t</w>
DISCLOS URE</w>
Ch an
t an
s ta
rep or
Dis posal</w>
identi ty</w>
bu yer</w>
LI MIT
IN FORM
design s</w>
Subsidi aries</w>
ori gin
co operate</w>
S C
Electron ic</w>
sel ler</w>
main tained</w>
b orrow
____ __</w>
y s
urisdic tions</w>
tw el
cre ate</w>
St ate</w>
f av
de fault</w>
d -
consum mate</w>
consul t</w>
acc essi
Priv acy</w>
D ue</w>
ai r</w>
oth ers</w>
int egr
W A
understand ings</w>
att emp
appli cations</w>
com es</w>
appli ed</w>
Pr in
twel ve</w>
re m
Acc ept
perform ing</w>
er r
Associ ated</w>
U .
O ur</w>
r ise</w>
canc ellation</w>
ar ch
accessi ble</w>
Confir mation</w>
______ _</w>
WHERE AS</w>
tr ad
t ure</w>
ro ss
p ment</w>
offi cial</w>
S ecu
E C</w>
. com</w>
s ite</w>
l ement</w>
infr ing
expec ted</w>
prohib it</w>
al one</w>
res c
b ery</w>
se ver
l an
ab sol
oc cur</w>
establis hed</w>
Secu red</w>
Op portunity</w>
INFORM ATION</w>
advis e</w>
g r
fa x</w>
correspon dence</w>
pers on
R em
s k
ex ternal</w>
accoun tants</w>
techn ically</w>
rou ght</w>
b rought</w>
Oblig ations</w>
Fur ther</w>
corpor ation</w>
Mark et</w>
A S
t ort</w>
suffi ce</w>
ri es</w>
201 6/
stat ute</w>
assump tions</w>
om m
lis hed</w>
iz ation</w>
em in
Re la
pro duction</w>
Wai ver</w>
p s</w>
Tran sactions</w>
1 8</w>
fi les</w>
ac k</w>
E X
tu ally</w>
stric t</w>
speci al</w>
resp ects</w>
qu ali
y -
tr ust</w>
pli c
d w
aff ecting</w>
Me zzanine</w>
H S
t on</w>
mon th</w>
in st
gi ves</w>
er ase</w>
ch o
a ffiliate</w>
__ __</w>
G N
A u
p age</w>
j urisdictions</w>
U N
A .</w>
invo ices</w>
fac ilities</w>
ceas es</w>
S ource</w>
Practi ce</w>
Par ticip
NE SS</w>
de duc
bre ach
le a
ffili ated</w>
be l
N e
Agre ed</w>
t s
st or
fun c
perman ently</w>
fi es</w>
W ith</w>
ins tit
dele ted</w>
con ven
Sha reholders</w>
1. 1</w>
ross -
Scre en</w>
ver se</w>
qui ries</w>
Articl es</w>
promp t</w>
d rafting</w>
U se</w>
retur ned</w>
au ditors</w>
Rela tionship</w>
G er
tra in
r ying</w>
ne tw
car rying</w>
av ailability</w>
a re
T A
SI GN
C G</w>
B C</w>
on s
investig ation</w>
enfor cement</w>
en ces</w>
accur ate</w>
with held</w>
mi ting</w>
li miting</w>
expi ry</w>
WIT NESS</w>
67 9</w>
s ti
pro ject</w>
ac comp
Certi ficate</w>
proc ed
appro ach</w>
Un ion</w>
Cour ts</w>
CO MP
of f</w>
z er
pl an
inv al
i ti
an ticip
Accoun ts</w>
R o
up dated</w>
saf eg
attor ne
Warran ties</w>
unic ations</w>
S A
LIMIT ED</w>
wai ves</w>
m er
co de</w>
D U
m ost</w>
V .</w>
S ave</w>
F a
D ec
B AN
____ _</w>
S ever
Pos ition</w>
H e
c .</w>
exec ute</w>
e .
C E</w>
ur y</w>
re -
negoti ating</w>
ma l</w>
g s</w>
Vent ure</w>
v ative</w>
se e
prec eding</w>
ev ents</w>
cor ruption</w>
communic ate</w>
ubli c</w>
pursu e</w>
lis t</w>
advis ed</w>
Under tak
PAR TY</w>
4. 1</w>
undertak en</w>
loc ated</w>
author ities</w>
2016/ 679</w>
w ard</w>
re ign</w>
ou s
employ ed</w>
clos ed</w>
Sec re
6. 2</w>
i fied</w>
fa ith</w>
du l
R AN
k e
TI ES</w>
7. 1</w>
tr us
m emor
estab lish</w>
emplo y</w>
b ri
30 .
v ers</w>
p lease</w>
jo int
assu med</w>
Op en</w>
Cer tain</w>
1 6
rec omm
l ace</w>
cep tions</w>
Secre ts</w>
In debtedness</w>
B .
Advis ers</w>
len der</w>
ac t
fac ts</w>
distribu tion</w>
appoin ted</w>
I t
D I
,000 ,000
n e</w>
Y our</w>
impl ement
compli es</w>
comp la
MD L</w>
In d
Ar bitr
.... ..
g ed</w>
develop ment</w>
cons is
Author ity</w>
A b
15 .
pric e-
non- exclusive</w>
acknowledg ement</w>
E E
C S</w>
wh ere
accep ts</w>
rec overy</w>
organis ation</w>
el s</w>
Ma in
F rom</w>
u su
remain s</w>
int ro
t ters</w>
mark eting</w>
arch i
amend ments</w>
M ember</w>
w ill
reme di
me et</w>
d less</w>
as set</w>
al low
N ON
In surance</w>
Enti ties</w>
is ation</w>
ic a</w>
f its</w>
b ring</w>
wis hes</w>
vent ure</w>
proced ure</w>
practi ces</w>
i ally</w>
s /</w>
fi t</w>
Cor por
19 .
por ter</w>
frau dul
cur ren
Vent ures</w>
S o
vo ting</w>
resol ution</w>
fav our</w>
Comm unications</w>
reser ves</w>
o s</w>
manag er</w>
visi on</w>
un t
plac ed</w>
ign ation</w>
discus s</w>
constit u
Undertak ings</w>
P ort
Co pies</w>
Appli cable</w>
du m</w>
a use</w>
Ow ner</w>
sch eme</w>
r ation</w>
en closed</w>
compla int</w>
I A</w>
ross- b
ross-b order</w>
proper ly</w>
non- public</w>
ceas ed</w>
3. 2</w>
vo id</w>
ob j
hi gh
gu age</w>
gro ss</w>
end s</w>
d ates</w>
b or
ac tually</w>
L u
op portunity</w>
ec tions</w>
am s</w>
E RE
v ation</w>
absol ute</w>
I P
A G</w>
ser ved</w>
r y
establis hment</w>
coven ants</w>
cla im
accru ed</w>
ab s
U ND
Arbitr ation</w>
ven cy</w>
ti c
sec u
non- disclosure</w>
joint ly</w>
pub lished</w>
pr ice</w>
et c</w>
adver se</w>
ab use</w>
Contro l</w>
suff ered</w>
an e
Re lease</w>
P RE
M ad
Fun ding</w>
prof its</w>
cal cul
C an
1 4
stor age</w>
nor mal</w>
fac ilit
Counter parts</w>
un e</w>
ri er</w>
fic ations</w>
du ciary</w>
chec ks</w>
Comp liance</w>
oc k
ed ent</w>
ar ly</w>
/ s/</w>
i de
d i</w>
B ack
1 2
ou ght</w>
judg ment</w>
invest or</w>
h ours</w>
d in
vi l</w>
regar dless</w>
re duced</w>
design ated</w>
Pro duct</w>
u man</w>
pat ent</w>
e der
IN SER
F ees</w>
z i
wai ved</w>
satisf act
fraudul ent</w>
S A</w>
Restric ted</w>
M A</w>
J u
INSER T</w>
E UR
w ays</w>
k ed</w>
enti rely</w>
ent al</w>
attorne ys</w>
tim ing</w>
is es</w>
investig ations</w>
inj ury</w>
govern ing</w>
O ut
B ene
sec ure</w>
rec as
m entioned</w>
cla ss</w>
ay ments</w>
B CG</w>
ys ical</w>
u tilis
trans mission</w>
prin ciples</w>
mit ting</w>
m a</w>
fi duciary</w>
bene fits</w>
Cour t</w>
prep aid</w>
Pro f
P lan</w>
refl ecting</w>
re liability</w>
per taining</w>
ot ation</w>
h e</w>
consult ant</w>
at ter
pre mises</w>
n s</w>
consoli dated</w>
al tern
NON -
Back ground</w>
Ap pen
8 00
v ary</w>
tan gible</w>
ot e</w>
LI BOR</w>
Acknowledg ements</w>
ous ly</w>
int ention</w>
avo id</w>
E .
D B</w>
е н
ul l</w>
tion ally</w>
simi le</w>
recor ded</w>
n on
exce ed</w>
bec ause</w>
at e
O ff
E Q
di x</w>
c ou
ateg ories</w>
ach ment</w>
I R
I II</w>
Hol dings</w>
par t-
expi ration</w>
re ve
process ed</w>
mis representation</w>
fir ms</w>
E T
o m</w>
inval idity</w>
compe ti
atter y</w>
manag ed</w>
expres sions</w>
J oint</w>
ris ks</w>
min al</w>
h ing</w>
consis tent</w>
ane ous</w>
Utilis ations</w>
Acc ess</w>
satisfact ory</w>
re leas
lan guage</w>
er g
e- mail</w>
commit ment</w>
anc tions</w>
Prof essional</w>
procee ds</w>
part- provision</w>
fail s</w>
ev en</w>
b al</w>
Stat ements</w>
Belgi an</w>
n ational</w>
direc tion</w>
comm encement</w>
G I
with holding</w>
sh i
dis posal</w>
defini tions</w>
dec ide</w>
ch e</w>
In divi
re view
m ark</w>
es ting</w>
creas ed</w>
ven ue</w>
un reasonably</w>
p a
impl ement</w>
gran ting</w>
a in</w>
Or din
4. 2</w>
fac simile</w>
f low</w>
c ha
S U
L. E.
is ter</w>
h and</w>
charg ed</w>
attemp t</w>
B attery</w>
A t</w>
satis fied</w>
forma t</w>
cou rier</w>
circumst ance</w>
V ER
с т
in su
consequ ential</w>
ac i
Speci fied</w>
Acc ession</w>
es ti
Priv ate</w>
E qu
pres s</w>
pos ting</w>
p as
ob ip</w>
anticip ated</w>
Par agrap
En viron
wor ks</w>
bo ard</w>
dele te</w>
WHERE OF</w>
S ing
De faul
75 0
p o
de l
st ar
pat ents</w>
on ger</w>
l onger</w>
ban king</w>
Main tained</w>
Inf obip</w>
F AT
FAT CA</w>
De duction</w>
invest ors</w>
ent ry</w>
conduc ting</w>
adver tis
P .</w>
Appen dix</w>
y ond</w>
sha reholder</w>
pres er
im pli
be yond</w>
associ ation</w>
addres see</w>
S olic
Ch arg
Amend ments</w>
Ad verse</w>
v ol
sup plier</w>
process or</w>
mb H</w>
de vice</w>
canc elled</w>
calcul ated</w>
advis ing</w>
Cla uses</w>
interes ted</w>
correspon ding</w>
al ways</w>
P L
Or der</w>
Offi ce</w>
A n</w>
sin ce</w>
remain der</w>
cus to
concer ned</w>
Inter pre
I L
Dis cus
Bene fi
vi a</w>
restric ted</w>
mis conduct</w>
e ves</w>
as t
an dum</w>
MEN TS</w>
Indivi dual</w>
C ross-border</w>
C os
ut able</w>
su sp
ons or</w>
equi pment</w>
Rem e
L.E. K</w>
typ e</w>
sel l</w>
Sing ap
O B
M aster</w>
F IN
Advis or</w>
rel ate</w>
ran ces</w>
ou gh</w>
SER V
Represent ations</w>
In c.</w>
ph ysical</w>
en quiries</w>
BAN K</w>
750 21</w>
sup port</w>
facilit ate</w>
price- sensitive</w>
mater ially</w>
fo recas
Singap ore</w>
Sha reholder</w>
L A
3 ,33
t ting</w>
s on</w>
ren der</w>
distribu ted</w>
G mbH</w>
1 8
resc ind</w>
lea ding</w>
for ward</w>
b r
anc y</w>
LI G
i qu
assign ee</w>
Eff ect</w>
ó n</w>
trad em
i ods</w>
Pro cess</w>
P ER
M il
Cos ts</w>
im pose</w>
L ev
speci fy</w>
nomin ee</w>
necess arily</w>
d uration</w>
contrac ts</w>
V IS
T i
T e
In ser
r ata</w>
coll ected</w>
T ech
Sh are</w>
B. V.</w>
AC K
2 5</w>
go od
XX X</w>
S P
P ayment</w>
GI G</w>
3. 3
trib ute</w>
netw ork</w>
individu ally</w>
M u
ins ol
clusi ve</w>
M ul
B an
certi fied</w>
b ack</w>
as i
Sever ability</w>
Re tained</w>
IS A</w>
De ed</w>
Associ ates</w>
un able</w>
shi ps</w>
re duce</w>
interpre ted</w>
ic s</w>
g ital</w>
E Y</w>
Discus sions</w>
r ates</w>
mark ed</w>
g th</w>
O ver
Des ign
commit ments</w>
J une</w>
B as
5 0</w>
wor d</w>
beli eves</w>
accor ding</w>
Nov ember</w>
Inser t</w>
…………………… …………
usu al</w>
ta ge</w>
satisf action</w>
MD L
Disclos ee</w>
re a</w>
portun ities</w>
p e
good will</w>
ec on
ar ing</w>
Dis p
u ally</w>
s aid</w>
ex plan
S .</w>
Re qui
E qui
C T
5. 1</w>
un al</w>
in crease</w>
eder al</w>
de ed</w>
app oint</w>
S truc
Defaul ting</w>
y ours</w>
x emb
reser ve</w>
repor ting</w>
regul ated</w>
opini ons</w>
modi fy</w>
con tribu
Lu xemb
re ad</w>
comp elled</w>
vari ed</w>
thir d-
f -
ex trac
Reme dies</w>
2 6</w>
sign atory</w>
d one</w>
av el</w>
AGREE D</w>
7. 2</w>
201 0</w>
sub- paragraph</w>
st al
pro m
prev ail</w>
our g</w>
ban k
R ules</w>
P ublic</w>
tak es</w>
par tment</w>
Av ailability</w>
su m</w>
occur s</w>
c ell
ar ticl
P en
G RO
ren dered</w>
l l</w>
in s</w>
en ch
Par k</w>
F C</w>
EQ T</w>
D rafting</w>
transf er
in cur</w>
h ow
fo res
exten d</w>
en ing</w>
chan ged</w>
L. P.</w>
there after</w>
tax ation</w>
n ext</w>
n et</w>
how soever</w>
des ign</w>
ati on
accor ded</w>
Off er</w>
5. 2</w>
law are</w>
infring ement</w>
J oin
De laware</w>
D ER</w>
understand s</w>
know s</w>
it ems</w>
In s
H O
ro g
li gible</w>
il ful</w>
fin ally</w>
e ed</w>
P RI
Luxemb ourg</w>
COMP ANY</w>
re produc
qu are</w>
incorpor ate</w>
h er</w>
N O</w>
B e
2 8</w>
wh at</w>
irrepar able</w>
h iring</w>
f o</w>
U. S.</w>
Interpre tation</w>
u m
u la
enforc ing</w>
al ised</w>
SC HE
SCHE DU
S ch
Qu otation</w>
A P
w ilful</w>
replac ement</w>
m ing</w>
consult ation</w>
Inv o
reli able</w>
pro of</w>
inv entions</w>
ere ly</w>
OB LIG
E r
2 3</w>
si x</w>
p lan</w>
enc ed</w>
Mo del</w>
D ated</w>
B id
AT A</w>
v ention</w>
com bin
accur ac
2 9.
under lying</w>
third- party</w>
sub st
p .
medi um</w>
m any</w>
i a</w>
and a</w>
vis ual</w>
specific ations</w>
p oint</w>
f f</w>
a ffiliated</w>
C H
wor ding</w>
proc eed</w>
f ound</w>
enc ing</w>
confir med</w>
c ent
ast di
SERV IC
Process or</w>
E mail</w>
y ers</w>
lo bal</w>
int end</w>
in accurac
inaccurac ies</w>
e. g</w>
SCHEDU LE</w>
C le
A rea</w>
A TIONS</w>
1 7
ti cal</w>
ren ew
organis ations</w>
mi lar</w>
me eting</w>
h ere</w>
abs ence</w>
P E</w>
Limit ation</w>
Ad jus
sign at
sh ared</w>
o int
o do
i ons</w>
breach es</w>
b ad
app oint
V I
Licen se</w>
C ent
Benefi ciary</w>
val p
valp ina</w>
thir ty</w>
own er</w>
negoti ate</w>
n at
exper ience</w>
emp tion</w>
certi fy</w>
as es</w>
S. A.</w>
No valpina</w>
EC TION</w>
sub- contractors</w>
Sp onsor</w>
Paragrap h</w>
M ay</w>
M andatory</w>
Indemn ity</w>
u tions</w>
transf ers</w>
pur chaser</w>
instruc t</w>
immedi ate</w>
har m
gre ater</w>
determin es</w>
cap it
repres enting</w>
In stal
ER S</w>
memor anda</w>
enti ce</w>
cri bed</w>
ag ed</w>
M is
pro -
los ing</w>
la ting</w>
en s</w>
assign or</w>
L MA</w>
Borrow ers</w>
tin gs</w>
m ir
exclu des</w>
econ omic</w>
O c
Int ro
E con
sel ves</w>
replac ed</w>
recipi ents</w>
prec edent</w>
o g
m es</w>
l in</w>
dela yed</w>
cal end
aw ay</w>
acti vely</w>
________________________ ________</w>
S election</w>
I P</w>
Cre di
pro j
prepar ation</w>
curren tly</w>
astdi l</w>
Port folio</w>
E astdil</w>
tin fo</w>
th ough</w>
su it</w>
pro gr
di date</w>
T reat
T ED</w>
S S
Ju ly</w>
Ind ustr
Fin al</w>
Credi tinfo</w>
trib unal</w>
su spec
rou tin
industr y</w>
calend ar</w>
bec ame</w>
J an
Econ omic</w>
Appli cation</w>
…… ……</w>
tic ally</w>
or ing</w>
len gth</w>
ga in</w>
HS BC</w>
Ex cluded</w>
C losing</w>
requ iring</w>
pr o</w>
nat ural</w>
licen ces</w>
is sion</w>
discus sion</w>
Ar milar</w>
train ing</w>
tr avel</w>
qu ality</w>
isclo sures</w>
indic ate</w>
har m</w>
al th</w>
adv an
Q U
B ench
t ended</w>
sec ond</w>
he ad
ad op
ther more</w>
ra in</w>
r it
di gital</w>
comp lying</w>
ci d
arg in</w>
D D</w>
s ing</w>
pro duce</w>
pow ers</w>
ex cess</w>
dec l
Re liance</w>
ER TA
recor ding</w>
op portunities</w>
lik e</w>
is itions</w>
i m</w>
ful fi
forecas ts</w>
S M
ER ISA</w>
3 1</w>
vic es</w>
pro posal</w>
i vers
i fic
expres sion</w>
en viron
assess ment</w>
tech nology</w>
sum m
subst ance</w>
instit ution</w>
el se</w>
am ong</w>
Ordin ary</w>
O n
un condi
sub mits</w>
reve al</w>
func tion</w>
de vices</w>
au d
acc id
repres ent</w>
li ght</w>
l u
err ors</w>
en cour
cell aneous</w>
cal cu
Y ear</w>
Environ mental</w>
B ran
suppl ement
s cre
s ales</w>
re ment</w>
meth ods</w>
communic ated</w>
UND ERTA
UNDERTA K
о р
v ul
il ing</w>
furnis h</w>
cover age</w>
ac ted</w>
Commer ce</w>
Cash flow</w>
B A
se y</w>
enforc ed</w>
stand ings</w>
neg li
l ers</w>
is h</w>
es ted</w>
e th
a i</w>
Treat y</w>
N ING</w>
L P</w>
G O
Ex ceptions</w>
C ri
AN CE</w>
/ C</w>
time fr
rec y</w>
p ot
ob er</w>
fo reign</w>
at ors</w>
M i
2 4
t ees</w>
s ent
a z
S wit
Prin ciples</w>
O C
Instal ment</w>
Dec ember</w>
A t
secu red</w>
k a</w>
incorpor ation</w>
________________________ ___</w>
Jan u
. 00</w>
trus tee</w>
Out standings</w>
Oc t
L /C</w>
G H
Chan ges</w>
subs ist</w>
sign ific
fall s</w>
administr ation</w>
Oct ober</w>
Janu ary</w>
ty -
there from</w>
ph one</w>
oper ational</w>
on a</w>
lo cation</w>
in clusive</w>
control ler</w>
cons ist
b ilities</w>
Indemn ified</w>
Dis posals</w>
8. 2</w>
t arget</w>
ro ss</w>
pot enti
potenti ally</w>
ne eds</w>
meth od</w>
imp act</w>
F lo
7. 4</w>
zer land</w>
un paid</w>
ond ary</w>
ir respective</w>
author ise</w>
ater al</w>
Swit zerland</w>
S ee</w>
Particip ant</w>
3,33 3.3
v able</w>
tru e</w>
sel ected</w>
see king</w>
respon d</w>
previ ously</w>
parti cul
l at
indic ated</w>
cons truction</w>
am es</w>
PRI V
L in
un enforceability</w>
pi ed</w>
m andatory</w>
fin dings</w>
decis ions</w>
conti n
V E
Ro ad</w>
Intro duction</w>
Acknowledg ments</w>
sec recy</w>
pro fit</w>
ir y</w>
dep os
dele tion</w>
conflic ts</w>
con clusi
S un
Invo ices</w>
Fac t</w>
Ex ecu
10. 1</w>
u ard</w>
routin e</w>
r .
groun ds</w>
W AR
Secur ities</w>
B a
Acc ount</w>
t est</w>
sel f-
re mo
r .</w>
person ally</w>
bel ong
be ar</w>
Ger many</w>
G E
E mir
C ol
...... ..</w>
time ly</w>
evi d
el ligence</w>
d raf
cas es</w>
addres ses</w>
NON- DISCLOSURE</w>
Mis cellaneous</w>
EE N</w>
Commer cial</w>
Chan ge</w>
Accept able</w>
AD VIS
subs titute</w>
nam ed</w>
in tent</w>
acknowledg ements</w>
Tech nology</w>
G C</w>
B Y</w>
ri on</w>
releas ed</w>
def end</w>
chedu les</w>
bri bery</w>
Sub contractors</w>
Res ignation</w>
Bo th</w>
wh ile</w>
s ought</w>
rem ove</w>
qu iry</w>
pro posals</w>
insol vency</w>
ev ery</w>
en su
adequ acy</w>
Reg ul
Design ated</w>
Con duct</w>
tern et</w>
safeg uard</w>
resp ectively</w>
ques tion</w>
pen ding</w>
ex cep
employ er</w>
dis cover
altern ative</w>
ST RI
MDL 0</w>
M argin</w>
F ran
Ex press</w>
D eri
ry ption</w>
ques tions</w>
identi fication</w>
harm less</w>
h ard</w>
conven ience</w>
c ategories</w>
automa tic</w>
appoint ment</w>
advertis ement</w>
T U
K ey</w>
Deliver y</w>
Bo ok</w>
15 9</w>
sub contractor</w>
por ting</w>
li qu
Pro per
LA W</w>
Ch ar
An ti-
5 9
2 /
sec tions</w>
pos ing</w>
pl c</w>
organ ization</w>
in creased</w>
i tive</w>
fi x
er ger</w>
ept ember</w>
comm it</w>
ali z
Y ou
Qu ali
ro y
rep aid</w>
origin ating</w>
op tional</w>
integr ated</w>
document ed</w>
So ftware</w>
R E</w>
Manag er</w>
Bri bery</w>
Att achment</w>
Accept ance</w>
4 4</w>
20 00</w>
2 8.
regar ded</w>
go ods</w>
bro ker</w>
app e
S eptember</w>
F O
Can didate</w>
…… …</w>
unt ary</w>
s /
initi ates</w>
automa tically</w>
ab ide</w>
TH ERE
RI GH
PRIV ATE</w>
PAR T
Le tters</w>
Deri vative</w>
pri mary</w>
dis tribute</w>
design ed</w>
archi ving</w>
You ng</w>
V E</w>
2 7</w>
tur al</w>
sit u
particip ating</w>
organis ational</w>
iz e</w>
er -
NO W</w>
L EN
G re
D ING</w>
20 .
10 0
w e
ur o</w>
irrepar ably</w>
T R
SP EC
I V</w>
C i
hol ds</w>
f air</w>
exclusi on</w>
d isclosures</w>
cri minal</w>
acti vity</w>
PART N
MA R</w>
Industr y</w>
EN T</w>
Cre dit
C o</w>
8 /
responsi bilities</w>
on ce</w>
noti fies</w>
lo ans</w>
carri es</w>
U P</w>
T T
Ne ther
Mark ets</w>
Licen see</w>
F ull</w>
uncondi tionally</w>
si a</w>
ref rain</w>
rap h
pur chas
in come</w>
en a</w>
c erely</w>
WA E</w>
U s
sub ordin
re produce</w>
pri l</w>
ma gn
law yers</w>
e able</w>
custo m</w>
contin gent</w>
Nether lands</w>
N ew
Coun sel</w>
C us
A pril</w>
2 5
2 2</w>
н о
refl ected</w>
ob serve</w>
n st</w>
le phone</w>
implement ed</w>
im porter</w>
coll ateral</w>
a ffi
L T
In struc
In iti
Er nst</w>
Charg es</w>
Arran g
Ap pro
web site</w>
vis aged</w>
sever able</w>
r s</w>
occur ren
b id
at h</w>
ai red</w>
Co operation</w>
B ET
,000 ,000</w>
signific ant</w>
r ating</w>
in f
exp lo
execu ting</w>
competi tive</w>
co operation</w>
bin d</w>
be gin
aci ón</w>
________________________ _</w>
SERVIC ES</w>
S I</w>
IL ITY</w>
FOR E</w>
EUR I
D A</w>
si bility</w>
combin ation</w>
Th ere</w>
Ta x
Noti fication</w>
Att ention</w>
ADVIS OR
1 159</w>
uth enti
sett lement</w>
s oli
reg ister</w>
per mission</w>
ol s</w>
invo ic
hol der</w>
di a</w>
bad al
att ach
assu mes</w>
an ying</w>
al leg
accomp anying</w>
Proper ties</w>
Pro prietary</w>
ong oing</w>
em enting</w>
c ity</w>
BET W
Ar ch
un incorporated</w>
s chedule</w>
review ed</w>
log ies</w>
head ings</w>
gran ts</w>
THERE FORE</w>
Solic itation</w>
OBLIG ATIONS</w>
t otal</w>
st e
rep lace</w>
mon etary</w>
explan ations</w>
de ath</w>
ci vil</w>
ban ks</w>
al y</w>
affi r
Th ere
S C</w>
It aly</w>
F eb
D L
BETW EEN</w>
wh ol
success ful</w>
satis fy</w>
re r</w>
obj ection</w>
k e</w>
it ors</w>
gener ality</w>
emb ers</w>
conf er</w>
comp r
ci ting</w>
W 1
Sp ain</w>
M emor
M embers</w>
D uration</w>
z e</w>
will ing</w>
sta ff</w>
se es</w>
per s</w>
op en</w>
mon it
magn e
le n</w>
app ear
advan tage</w>
ad jus
Flo or</w>
Du b
with draw
respon se</w>
g or
g emin
gemin i</w>
comm ission</w>
ar ri
Ti me</w>
Scre ening</w>
Quali fying</w>
P A
O per
Instruc ting</w>
DE FIN
Cap gemini</w>
,000,000 .00</w>
vi ol
u lar</w>
sub- clause</w>
s anctions</w>
occurren ce</w>
magne tic</w>
h ist
ex ist</w>
deduc ted</w>
chec k</w>
back ground</w>
b al
articl e</w>
Sh ould</w>
PAR TIES</w>
Fur thermore</w>
Feb ru
En erg
wor ld</w>
un registered</w>
um n</w>
sub po
re duction</w>
liqu id
im port
h and
diff erence</w>
de duction</w>
cur acy</w>
c ed</w>
begin ning</w>
X X</w>
V ari
S quare</w>
RIGH TS</w>
McKin sey</w>
EURI BOR</w>
C TA</w>
Ac curacy</w>
mo del
dw are</w>
6/ EC</w>
2 7
qu e</w>
eri a</w>
draw ings</w>
bre ached</w>
advis ory</w>
Tran che</w>
Memor andum</w>
E B
1. 3</w>
us er</w>
signat ures</w>
ro ma</w>
regul ator</w>
pri ority</w>
in ure</w>
in ternational</w>
Te am</w>
Restric tions</w>
Febru ary</w>
Energ y</w>
Cus tom
Arch roma</w>
techn iqu
proj ections</w>
in accuracy</w>
de termination</w>
control ling</w>
cont acts</w>
comm encing</w>
W LE
WLE D
Ow n
Emir ates</w>
DEFIN I
Bri dg
2. 4</w>
19 8
te ed</w>
soli citing</w>
badal a</w>
Sec ondary</w>
SA RE
Mu badala</w>
Con sequ
ver i
techniqu es</w>
meth odo
h ire</w>
et t
as h</w>
ari e</w>
al ter
________________________ _______</w>
NO WLED
GO VER
F oun
At las</w>
model s</w>
m il
impl ementing</w>
dis aster</w>
di vision</w>
bo dies</w>
S H
S EN
F ee</w>
1 8.
ula tive</w>
su itable</w>
prec au
pen sion</w>
mat es</w>
lin ks</w>
har med</w>
ga ins</w>
ex plic
detail ed</w>
des ir
ad ded</w>
ac hi
U p</w>
Re view
N V</w>
GOVER NING</w>
Corpor ation</w>
Am er
struc ture</w>
separ ately</w>
respon ds</w>
res t</w>
irrevoc able</w>
in debtedness</w>
f ail</w>
determin ing</w>
confir ming</w>
concer ns</w>
az ka</w>
annu m</w>
S azka</w>
Pri vileg
P lace</w>
G B
Cap it
6 0</w>
t esting</w>
subpo ena</w>
reproduc tions</w>
pro ve</w>
g en
du plic
do ing</w>
am end</w>
acqu arie</w>
M acquarie</w>
IT DA</w>
H ill</w>
EB ITDA</w>
val id
un connected</w>
sent ence</w>
pas t</w>
ob ser
mis leading</w>
m ach
l dw
ldw ide</w>
f ederal</w>
co pied</w>
bon d</w>
2 5.
о н
w w
sh aring</w>
reas ons</w>
pro mises</w>
preser ve</w>
on es</w>
lis ting</w>
forma l</w>
f our</w>
endeav our</w>
ar ises</w>
anti- corruption</w>
affir m</w>
Struc tural</w>
R e</w>
C anc
ACK NOWLED
v ement</w>
so far</w>
sing ular</w>
saf ety</w>
pl ural</w>
noti fying</w>
hol ders</w>
encour age</w>
e ering</w>
deliver ables</w>
cl ear</w>
accid ental</w>
Under signed</w>
Particip ating</w>
Mil li
E M
Ch ec
y n</w>
safeg uar
s emin
produc ed</w>
pre- paid</w>
oblig ated</w>
ma jority</w>
in duc
ep oint</w>
Guaran tee</w>
E -
DEFINI TIONS</w>
D ut
D O</w>
Bridg epoint</w>
Accoun ting</w>
8 0
2 9</w>
199 4</w>
1. 4</w>
with hold</w>
o ks</w>
me e
ivers ary</w>
expi re</w>
cop ying</w>
bo ok</w>
ann iversary</w>
V alu
Speci al</w>
Righ t</w>
Milli man</w>
GRO UP</w>
D uring</w>
6 2</w>
prom ise</w>
progr ams</w>
deri vative</w>
consequ ence</w>
con ver
Review er</w>
Ma j
H g</w>
EN ER
warran t</w>
re- en
off ered</w>
ro om</w>
res ist</w>
re d
extrac ts</w>
ensu ring</w>
at ur
acqu isitions</w>
W eb
P oli
N .
HO L
En sure</w>
A ra
6 0
wor ldwide</w>
mee tings</w>
it ly</w>
for d</w>
desir able</w>
aud ited</w>
allow ed</w>
________________________ ______</w>
I ber
Adjus tment</w>
5. 3</w>
particul arly</w>
implement ation</w>
f all</w>
exp un
ep ted</w>
el d</w>
com mitted</w>
annu al</w>
Vari ation</w>
TH ER</w>
T ATION</w>
P ayments</w>
L Y</w>
Dut ch</w>
C ash</w>
Ara b</w>
Acc epted</w>
the ft</w>
se tting</w>
oc ial</w>
it ure</w>
int en
im ply</w>
ex is
consum mation</w>
consist ency</w>
concer t</w>
bor ne</w>
ag es</w>
S av
S an
Mar lin</w>
Mar ch</w>
LI C
Join der</w>
7. 3</w>
л ь
u d
ri d</w>
reason ab
prepar ing</w>
P repayment</w>
Invest ments</w>
th ings</w>
pro portion</w>
mer ger</w>
is ite</w>
int ends</w>
h ic
dis ks</w>
comm ence</w>
cho ose</w>
am b
UNDERTAK ING</w>
SIGN ED</w>
New co</w>
Lic ens
G o
C H</w>
201 4</w>
tru ly</w>
re ject</w>
pursu ing</w>
pro gre
precau tions</w>
ord ers</w>
licen sed</w>
instru ments</w>
f e</w>
dis semin
benefi cial</w>
Licens or</w>
F o
4 9</w>
4 0</w>
ver y</w>
ti nu
sk ill</w>
repor ted</w>
ob ject</w>
lin es</w>
impli cation</w>
de partment</w>
constitu ted</w>
Comm encement</w>
Com mission</w>
B ar
zer o</w>
y our
subs cri
sh own</w>
sett led</w>
se t-
s g
p ai
offic es</w>
m oral</w>
int entions</w>
excep tion</w>
discover y</w>
deal ings</w>
arran ge</w>
W y
Re d
G F
Cont act</w>
3. 3</w>
3 /
2. 5</w>
ty- free</w>
supplement ed</w>
roy al
royal ty-free</w>
r on
pro spec
p on
inten ance</w>
har dware</w>
exclusi ons</w>
benefi cially</w>
R is
Du ty</w>
Au g
An n
sub jects</w>
st ab
set- off</w>
intro duced</w>
ffi cul
exten sion</w>
ex port</w>
esti mates</w>
er ation</w>
di fficul
credit ors</w>
acknowledg ed</w>
a su
________________________ _____</w>
T H</w>
HS E</w>
Ger man</w>
B DO</w>
w C</w>
t cy</w>
strateg ies</w>
rup tcy</w>
recogn ised</w>
off ers</w>
in sofar</w>
deem s</w>
There fore</w>
RE C
Pen sions</w>
P wC</w>
P ol
Dub ai</w>
Con tinu
C ase</w>
visi ons</w>
to -
re financing</w>
or tis
len ess</w>
leg ate</w>
it em</w>
consequ ences</w>
cent age</w>
S D</w>
Ris k</w>
I B
Enti ty</w>
DP A</w>
Arrang ers</w>
200 4</w>
recomm end
re rs</w>
r. l</w>
guaran teed</w>
e uro</w>
M S</w>
E i
Con s
ен и
sub contract</w>
err or</w>
________________________ ____</w>
R A
O li
F OR</w>
Canc ellation</w>
4 800
valu able</w>
v ested</w>
t a</w>
rep utable</w>
progre ss</w>
pres ence</w>
own s</w>
mut ually</w>
min im
le y</w>
it ness</w>
fol low</w>
ep ing</w>
attor ney</w>
ap er</w>
Mul ti
In side</w>
reli eve</w>
rec our
recour se</w>
reasonab leness</w>
pos ite</w>
op posite</w>
li mits</w>
la p
ins p
dis charge</w>
cum ulative</w>
With in</w>
S ol
Not es</w>
Mad am</w>
L O
Ex cess</w>
Ch ase</w>
u ted</w>
tradem ark</w>
requ isite</w>
re n</w>
per centage</w>
h ab
ex tended</w>
ex porter</w>
ex emption</w>
document ary</w>
J UR
Control led</w>
B r
Acc el
ti um</w>
sti ll</w>
stab lis
on y
le tters</w>
in cid
conven i
author isation</w>
S chedules</w>
N one</w>
Law son</w>
E stablis
4 8</w>
3 2</w>
13. 2</w>
10 30</w>
t arg
in no
________________ _______</w>
US E</w>
Si r</w>
Per iods</w>
P h
M at
Corpor ate</w>
C J
zi one</w>
ver ified</w>
suspec ted</w>
sin cerely</w>
i g
f e
author ization</w>
al ties</w>
D a
Amend ment</w>
re duc
inf lu
h y
g ra
comp os
aliz ed</w>
Represent ation</w>
Mad rid</w>
E- mail</w>
Aug ust</w>
................................ ................
...... .</w>
pass ing</w>
fores ee
foresee able</w>
explic itly</w>
exam in
el ect</w>
dg ing</w>
consi ders</w>
beli eve</w>
arbitr ator</w>
am pl
V ATA</w>
S atur
PARTN ERS</w>
Le av
In clude</w>
G ENER
GENER AL</w>
C ost</w>
Ab use</w>
2 9
………………………………………… …</w>
vent ed</w>
t ered</w>
refl ects</w>
pre vented</w>
he alth</w>
fa ir
cho ice</w>
at ch</w>
Prin cip
CJ A</w>
Bid der</w>
th em
quali fied</w>
pen alties</w>
non- reliance</w>
induc ement</w>
incorpor ating</w>
for um</w>
e dings</w>
dis pose</w>
breach ing</w>
Sub contractor</w>
Su m
STRI CT
S cope</w>
Proce edings</w>
L ist</w>
L ab
Initi al</w>
G ran
Fo reign</w>
F i
Ex change</w>
D ATE</w>
Cla im</w>
Amer ica</w>
4 0
w ant</w>
ve hic
under ing</w>
u ti
u mb
su ms</w>
pu t</w>
present ed</w>
pa pers</w>
ow ing</w>
ow er</w>
le x
le ad</w>
end iture</w>
ech an
assu rances</w>
an ish</w>
WAR RAN
Rep lac
P P
G u
D ev
CO UN
3 6</w>
utilis ed</w>
tra -
te lephone</w>
t emp
summ aries</w>
recomm ended</w>
rec ent</w>
min ary</w>
m .</w>
lis ts</w>
difficul t</w>
decl are</w>
communic ating</w>
ampl ona</w>
________________ ______</w>
V ery</w>
Su m</w>
SM I</w>
P oint</w>
P amplona</w>
Oli ver</w>
O ak
Bu t</w>
9. 2</w>
33 ,33
33,33 3,333.3
v ote</w>
subs tit
se ven</w>
l o</w>
inter medi
in consistency</w>
hi le</w>
evid enced</w>
cre ation</w>
W hile</w>
SPEC I
Offi c
N U
Lev els</w>
Leav er</w>
IN TER
Ei ther</w>
Ann oun
AB ILITY</w>
A ffiliated</w>
9 /
11. 1</w>
ran ge</w>
ke eping</w>
el ess</w>
des i
coven ant</w>
arri ers</w>
acc ess
S. p.
P II</w>
L L</w>
E ligible</w>
E LL
Ci vil</w>
C I
Bran d
10 2</w>
valid ly</w>
su s
particip ations</w>
integr ity</w>
as cribed</w>
T ri
M in
G T
EE A</w>
CE P
star t</w>
n on</w>
invoic ing</w>
environ ment</w>
ent e</w>
el end</w>
charg eable</w>
appear s</w>
Us ers</w>
TH IR
THIR D</w>
Sav elend</w>
S B
Pr int</w>
PL C</w>
Lev el</w>
I l
Establis hment</w>
Disp ute</w>
A C</w>
4 7</w>
,000,000 ,000</w>
partn er
negli gent</w>
ne x</w>
en quiry</w>
Sy ndic
M U
Foun der</w>
C ali
7 6
them selves</w>
su e</w>
si ve</w>
s c
ro w</w>
restric tive</w>
manag ers</w>
here n
ex ceptions</w>
dis k</w>
d ation</w>
cu mb
conveni ent</w>
arbitr al</w>
NO TI
Ins titute</w>
Engag ements</w>
Con tin
A fr
to ols</w>
te am</w>
sen ding</w>
person ality</w>
hab i</w>
ha vi
furnis hing</w>
exper t</w>
ex changed</w>
deb ts</w>
be havi
L os
D habi</w>
C op
Ab u</w>
р а
v i</w>
righ t
me t</w>
leg iti
dem ands</w>
com ments</w>
circum vent</w>
TU AL</w>
SA /
SA/ NV</w>
x x
unt arily</w>
ta il</w>
ref use</w>
re land</w>
pai d
paid -up</w>
ilit as</w>
Princip al</w>
I reland</w>
EC 2
Ag ilitas</w>
........ ........</w>
tion ships</w>
sum mary</w>
rep ay</w>
ref ers</w>
prot ecting</w>
prepar e</w>
le ft</w>
k ers</w>
in cur
deve lo
borrow ed</w>
Wy man</w>
T UR
RE PRE
REPRE SEN
Op tional</w>
Non- Acceptable</w>
GF PII</w>
Des truction</w>
Bo ard</w>
8. 1</w>
ti tion</w>
s ory</w>
quali fications</w>
per iods</w>
no vation</w>
deal t</w>
d om
cl ose</w>
ark s</w>
a .
W ar
Replac ement</w>
Regul atory</w>
P l
H uman</w>
Equ ity</w>
E D
Au ditors</w>
12. 1</w>
我 们
………………………………………… …………
………………………………………… ……</w>
е т
vir us</w>
trib utable</w>
se at</w>
s ements</w>
publi cation</w>
man u
ett lement</w>
eff ects</w>
duplic ate</w>
af o
S ettlement</w>
Rep or
Contin gent</w>
Cent re</w>
Car l
8/ EC</w>
200 2/
- to-
tradem arks</w>
m ort
im es</w>
h uman</w>
eth ical</w>
en gin
ear ly</w>
di d</w>
con fidenti
cha f
c ements</w>
bo oks</w>
aw ard</w>
Me dia</w>
EUR O
Dev e
Co .</w>
Ch ina</w>
9 0</w>
ст в
tric t</w>
t i</w>
sol vency</w>
rela tionships</w>
r al</w>
pos sibility</w>
n ar
invol ve</w>
e ted</w>
dis bur
con ve
claim er</w>
a uthenti
T r
STRICT LY</w>
Rec over
Nov o</w>
IS D
I m
Disp utes</w>
Control s</w>
CL A
C ES</w>
Appro ved</w>
Agre ements</w>
A B</w>
6 6
4 5</w>
1 The</w>
ul sory</w>
s ocial</w>
s am
represent ed</w>
on er
log ical</w>
lin ed</w>
ide lines</w>
ent ed</w>
enc ryption</w>
ei gh
compe te</w>
ati s</w>
Tax es</w>
Ta ke
S ou
S eri
Con f
Accoun tants</w>
ц и
trans mitted</w>
t ap
ref er
p ol
inv itation</w>
fix ed</w>
engag ing</w>
en se</w>
co des</w>
circum vention</w>
are as</w>
Stand ards</w>
Satur day</w>
S ECTION</w>
Recover ing</w>
Re view</w>
RE TUR
LT D</w>
Dis trict</w>
C V
Bench mark</w>
5 8/EC</w>
2002/ 58/EC</w>
st ore</w>
prospec ts</w>
present ation</w>
out lined</w>
ent er
develop ments</w>
Fa x</w>
Conf lic
us ers</w>
re e
inst e
fi f
exper ts</w>
clos ing</w>
ca ref
at tributable</w>
an g
a k</w>
S anctions</w>
O ption</w>
M r.</w>
Coun try</w>
Belgi um</w>
B us
9 5
3 5</w>
ter ing</w>
pre cluded</w>
pas s</w>
n er
in adequate</w>
im pro
ill s</w>
hel p</w>
f itness</w>
exce eds</w>
anti- bribery</w>
Valu e</w>
Sec tions</w>
P reli
F ort</w>
En visaged</w>
D E</w>
30 1</w>
é t
whol ly</w>
trans mitting</w>
susp end</w>
scre ens</w>
s ement</w>
perman ent</w>
fin an
eff ected</w>
disbur sements</w>
bank ruptcy</w>
b arriers</w>
anc illary</w>
S har
Repor ting</w>
P i
JUR ISD
JURISD IC
JURISDIC TION</w>
G lobal</w>
F rance</w>
Ca ir
Bas el</w>
BA U</w>
An nex</w>
tin gu
rep ut
mo del</w>
initi al</w>
high er</w>
hi gh</w>
g g
dis pu
copy rights</w>
ali a</w>
Ref eren
REE T</w>
PAR T</w>
M AN
J EC
Fir st</w>
A E
7 1</w>
о т
read able</w>
p ul
invol vement</w>
en ue</w>
develo p</w>
dec la
d ra
capit alised</w>
bu dg
benefi ciary</w>
TER M</w>
Sun day</w>
Speci fic</w>
S o</w>
O ne</w>
Equi pment</w>
C al
Ban king</w>
ul f</w>
train ts</w>
divi d
contribu tion</w>
acqu iring</w>
Wh en</w>
V er
Transf er
S ale</w>
Int elligence</w>
G ulf</w>
w al</w>
us er-
timefr ame</w>
op tions</w>
monit or</w>
legiti mate</w>
he user-
guaran tees</w>
g lobal</w>
fin d</w>
b loc
asi -
R a
Lab s</w>
L ever
E v
De tail
Bus ch</w>
A .
typ es</w>
transfer able</w>
t able</w>
remedi ation</w>
por tions</w>
own ers</w>
mul ti
le t</w>
lat est</w>
influ ence</w>
gu idance</w>
exten sions</w>
exclusi vity</w>
e ded</w>
d ro
c ing</w>
Transfer or</w>
ST REET</w>
Prot ected</w>
O THER</w>
Deve lop
Detail s</w>
4. 3</w>
ul ti
sti pul
s ter
in adver
hi m</w>
fulfi l
explo it</w>
exp ect</w>
enh ill</w>
continu es</w>
administr ator</w>
Red is</w>
Par is</w>
PRO VI
M erger</w>
M N
M IS
In solvency</w>
Gre enhill</w>
C ir
ACKNOWLED GE
1. 6</w>
. 1</w>
viol ate</w>
ven ess</w>
th ering</w>
oner ous</w>
on es
o t</w>
m echan
la undering</w>
ide as</w>
ic h
i .
alter ation</w>
al lo
SARE F</w>
Referen ces</w>
IT AL</w>
AT URE</w>
и н
suffici ency</w>
subordin ate</w>
recei ver</w>
pub lish</w>
prev a
our ces</w>
ou se
o h
heuser- Busch</w>
en to</w>
S. L</w>
S w
S e
R ene
Pri or</w>
Noti fiable</w>
Il legality</w>
An heuser-Busch</w>
Ad min
AN E
2. 2
tingu is
t ree</w>
oblig e</w>
m u
inste ad</w>
imp aired</w>
gra m</w>
c all
________________________ __</w>
Wor th</w>
Q uar
Or gan
On ly</w>
N umb
Los ses</w>
In form
IP R</w>
H .
Acknowledg ement</w>
200 3</w>
2. 7</w>
и с
а н
w yn</w>
t ations</w>
sh ow</w>
prep ayments</w>
permis sions</w>
he ad</w>
h oli
d own</w>
ad here</w>
St ock</w>
Rene wal</w>
Re sul
RETUR N</w>
R C</w>
Proce d
Per wyn</w>
I V
He dge</w>
Ex pi
Cle ar
Carl ton</w>
As set</w>
1 6.
suff er</w>
resol ved</w>
res ili
resili ence</w>
o k
is tering</w>
fail ed</w>
di vul
contrac ting</w>
Warran ty</w>
Sign atory</w>
R i
Provi ders</w>
Partn ership</w>
Numb er</w>
IN G
FOR M</w>
Ex clusi
Control lers</w>
C AP
C A
ADVISOR Y</w>
4 8
.. ..</w>
п р
л и
è re</w>
v als</w>
tra- Group</w>
sel s</w>
re ments</w>
op le</w>
insp ection</w>
e /
draf ts</w>
d en</w>
con c
asu ry</w>
XX XX</w>
X TH</w>
SI XTH</w>
Pro jects</w>
N et</w>
M B
Fa il
Ex ten
Cri minal</w>
Cle an
800 ,000,000.00</w>
5 33,333,333.3
us age</w>
suppl ement</w>
remo ved</w>
registr y</w>
ref our</w>
modi fications</w>
licen s
ins truction</w>
er ies</w>
en cumb
canc el</w>
att achment</w>
appe al
O range</w>
O W
I .
F O</w>
Con version</w>
Car refour</w>
C P</w>
76 102</w>
5. 4</w>
а т
wor ker</w>
where ver</w>
utilis ation</w>
ro un
prev ents</w>
no v
mis use</w>
inst ance</w>
end or
e ffi
compos ition</w>
Under lying</w>
S K</w>
Re duction</w>
P re
Over draft</w>
INTER PRE
Fail ure</w>
Defin itive</w>
Custom s</w>
B er
7 7</w>
................................ ........
+ 44</w>
t es</w>
ob tains</w>
m em
liquid ation</w>
hist ory</w>
ha m</w>
expun ge</w>
certi fying</w>
at é
anc ed</w>
T X</w>
Sub s
S.p. A.</w>
S wis
S in
Mc La
McLa ren</w>
E ver
D em
A ir
4 2</w>
y p
un affected</w>
ts chaf
tschaf ts
ter r
sup porting</w>
right fully</w>
resul ted</w>
ra ised</w>
obj ecti
memor andum</w>
ma intenance</w>
ir tschafts
intro duction</w>
incur ring</w>
holi day</w>
heren ce</w>
exerc ised</w>
Sw ed
Res er
Own ership</w>
Mul ti-
F ra
Exten sion</w>
C ategories</w>
AS E</w>
200 3/
2 8
ste p</w>
sol ution</w>
s a
poli tical</w>
mort gag
m ess
lex ion</w>
la bor
investig ative</w>
emp t</w>
cu lation</w>
cons traints</w>
confidenti ally</w>
co ère</w>
até coère</w>
as ked</w>
as k</w>
appeal able</w>
ali an</w>
adop ted</w>
R u
Mon th
L atécoère</w>
Inf lexion</w>
E Y
A N</w>
11 62</w>
и л
ti ce</w>
purpor t</w>
non- circumvention</w>
il legality</w>
g over
el se
cont est</w>
competi tion</w>
comp on
ci aries</w>
Syst em</w>
R ating</w>
P .
Non- LIBOR</w>
Manag ing</w>
Manag ers</w>
M al
199 3</w>
1 A</w>
res t
ra ise</w>
pl us</w>
partner ships</w>
om it</w>
me work</w>
licen ses</w>
inter f
il ed</w>
fi led</w>
exis ts</w>
el ec
bank ers</w>
AG E
up dates</w>
transfer ring</w>
p aper</w>
ortis ing</w>
methodo logies</w>
mark ets</w>
m and
le ave</w>
issu er</w>
gover n</w>
finan ci
decla red</w>
conclusi ons</w>
acknowledg ments</w>
a ir
V B</w>
Un paid</w>
Subs titute</w>
Shar ing</w>
Sch eme</w>
SB IA</w>
Requi rements</w>
Proced ure</w>
INTERPRE TATION</w>
IN T
I B</w>
FI VB</w>
F S
ENTI RE</w>
Defin ition</w>
C ity</w>
Att n</w>
Admin istr
si x
se ar
sear ch</w>
rec ti
l and
in ternet</w>
i ting</w>
form al
ex tinguis
cons ented</w>
belong ing</w>
alleg ed</w>
Wor ks</w>
Sec ond</w>
Requi rement</w>
Pr ice</w>
M SA</w>
Limit ations</w>
LE TT
F FI
59 6/
w i
vol untary</w>
v endor</w>
ti se</w>
there by</w>
substanti al</w>
preva iling</w>
present e</w>
o l</w>
netw or
n gor
ngor m</w>
li fe</w>
Multi- account</w>
Le ase</w>
L oc
Interes ts</w>
H ist
H M
G i
Fir ms</w>
Commit tee</w>
Cair ngorm</w>
33 00</w>
3 6.
2. 6</w>
wh en
when ever</w>
ve -
un iqu
tain ment</w>
re ti
or tium</w>
off ence</w>
insu rers</w>
fin ances</w>
char ac
b and</w>
US T</w>
T re
P rec
JEC T</w>
It alian</w>
Issu e</w>
D ATA</w>
CAP ITAL</w>
Air band</w>
3 3</w>
199 8</w>
к о
z a</w>
vers y</w>
u di
trad ed</w>
t een</w>
sh or
per f
or d</w>
on e
indemn ities</w>
igh t</w>
ere e</w>
dra w</w>
contro versy</w>
behavi our</w>
associ ates</w>
are a</w>
acqui res</w>
Ra ising</w>
Maj or</w>
J UST</w>
In creased</w>
Guaran tors</w>
G ent
CE LL
Bench marks</w>
Ban ks</w>
Am ortising</w>
A rion</w>
4 3</w>
201 7</w>
un usual</w>
tw ent
som e
princip als</w>
op pose</w>
mach in
in forms</w>
i ous</w>
dis claimer</w>
conclusi on</w>
commit tee</w>
cess ation</w>
b l
attach ments</w>
assess ments</w>
US D</w>
Swis s</w>
R Y</w>
P age</w>
LEN DER</w>
Indemn it
H. I.
De partment</w>
Co oper
Ca p</w>
C S
Accel -
596/ 2014</w>
un eration</w>
trans mit</w>
syndic ation</w>
self- regulatory</w>
secu rely</w>
s si
s cha
retur ns</w>
res tra
rel ying</w>
raph ic</w>
privileg ed</w>
or n
la ire</w>
l em
in appropriate</w>
gu idelines</w>
g ing</w>
g et
fic ates</w>
ent ure</w>
deduc ting</w>
constitu ting</w>
________________ ________</w>
Tra ding</w>
Syndic ation</w>
R ound</w>
MU TUAL</w>
HM RC</w>
Gent lem
G e
Ex ide</w>
Bel laire</w>
B ul
................................ .......</w>
where by</w>
tran si
tr ies</w>
sub- participation</w>
see ks</w>
ry p
ret ary</w>
ran ch
organ iz
occur ring</w>
it oring</w>
il ding</w>
g in</w>
g er
correspon d</w>
consult ancy</w>
consul ting</w>
compi lation</w>
c ard</w>
ack age</w>
T op
Mon itoring</w>
ING S</w>
IN C
De le
ver age</w>
suppl ying</w>
rit eria</w>
ren s
qu ar
ot ations</w>
on e-
of ten</w>
le ar
inter rog
i e
h en
g ently</w>
g .</w>
essi on
belong s</w>
ati o</w>
ari o</w>
accep ting</w>
a ding</w>
TI VE</w>
Swed en</w>
Resul ts</w>
Rep ublic</w>
Reg ister</w>
Par ti
P et
N ational</w>
J us
I BC</w>
Gentlem en</w>
G rou
F ol
Continu ing</w>
B ro
B ow
AE I</w>
9/ 13
9/13 6/EC</w>
200 9/136/EC</w>
2 2.
100 ,000</w>
ulti mate</w>
timefr ames</w>
targ eted</w>
respon ding</w>
per mits</w>
numb ers</w>
fair ly</w>
eff ecti
destro ys</w>
calcu lations</w>
ann ed</w>
all en
________________ ____</w>
T RI
Sou th</w>
P la
Ne tw
LETT ER</w>
In ternet</w>
Fran k
Ex pen
Con fi
Accel- KKR</w>
AD D
с о
w ater</w>
tric tly</w>
t or
sol d</w>
p se
or m
on line</w>
ock hol
nomin ated</w>
h as
e. g.</w>
def ending</w>
arbitr ators</w>
ac tment</w>
V EN
St ockhol
S trictly</w>
N eg
Ma in</w>
H K</w>
G ross</w>
E U
Charg ed</w>
C am
12. 6</w>
tru m</w>
re ty</w>
non- transferable</w>
man i
l ate</w>
inform ing</w>
func tions</w>
extrac t</w>
discus sing</w>
ca uses</w>
M IN
Ag ency</w>
11. 2</w>
т ор
ét é</w>
ud ony
rens ics</w>
pse udony
proc u
pr ü
omin ated</w>
mat uring</w>
j unc
irtschafts prü
fo rensics</w>
exec utes</w>
est ate</w>
effi ci
dissemin ation</w>
de legate</w>
compr ised</w>
col umn</w>
ci l</w>
br ack
________________ _____</w>
W irtschaftsprü
V ic
Stockhol m</w>
Reg istr
Pro visions</w>
Privileg ed</w>
P a
Oblig ation</w>
N on
Mi rion</w>
MIT TED</w>
MB ER</w>
La dies</w>
King s
H IB
Fol low
Fa ir
Con sul
Clean -
Clean- Up</w>
C l
B RO
B ACK
Afr ica</w>
Ad ded</w>
tri ev
proper ties</w>
non- appealable</w>
mon ies</w>
m p</w>
indemni fied</w>
im proper</w>
effecti veness</w>
dispu ted</w>
dis c
de em</w>
cre ates</w>
coun tries</w>
concer n</w>
b y-
b re</w>
appro ve</w>
H.I. G</w>
F ederal</w>
EY I</w>
Ch amb
C G
3. 1
w ind
vers a</w>
ter ly</w>
sever al</w>
saf e</w>
ree dom</w>
ph r
pass ed</w>
over due</w>
e- discovery</w>
draf ted</w>
desi res</w>
d ating</w>
bid der</w>
Web site</w>
Sever ance</w>
Rec ords</w>
Re li
Pro posing</w>
PRO T
Over view</w>
Kings Rock</w>
Jus tice</w>
Join ing</w>
Fac t
Expi ry</w>
Ev ents</w>
EC P</w>
Dis ruption</w>
Bul let</w>
Be fore</w>
Al tern
9. 1</w>
24 26</w>
2003/ 2426</w>
2 6.
................ ................</w>
te ams</w>
strateg ic</w>
rela tive</w>
re-en acted</w>
present ations</w>
ol o</w>
es ell
er ases</w>
consum ma
col n</w>
ch allen
ass isting</w>
admin istering</w>
achi eve</w>
UND ER</w>
R U
Non- Solicitation</w>
Lin coln</w>
Le ad</w>
In trum</w>
Frank fur
Consequ ences</w>
AL L</w>
3. 2
20 21</w>
щ е
п о
w .
v an</w>
t uring</w>
stipul ated</w>
ra ther</w>
one- way</w>
nor m
investig ating</w>
ins er
in consistent</w>
f ranch
dis charged</w>
da m</w>
contemp or
ceas ing</w>
bal ances</w>
ac ross</w>
WA LL
WALL BRO
WALLBRO O
WALLBROO K</w>
V it
Rec overy</w>
PER MITTED</w>
LI ABILITY</w>
Fair line</w>
EX HIB
D F</w>
Char tered</w>
Be v</w>
B ear
AN T
A sia</w>
3 The</w>
2 6
10. 2</w>
.. .</w>
uniqu e</w>
sel ect</w>
s al</w>
rep e
renew als</w>
it ted</w>
int an
intan gible</w>
import ant</w>
high ly</w>
fores een</w>
exp enditure</w>
es ts</w>
contr av
SO W
Process ed</w>
P or
No t</w>
Iber us</w>
I R</w>
F A
Da ma
CL U
A venue</w>
201 5</w>
2. 1
н а
С тор
your self</w>
th us</w>
s end</w>
reput ation</w>
of -
nar row</w>
ing Point</w>
i an</w>
get -up</w>
formal ities</w>
fi ling</w>
execu tive</w>
else where</w>
datab ases</w>
cer tain
c up
brack ets</w>
bloc k</w>
assump tion</w>
ap ter</w>
aggreg ated</w>
adop t</w>
Reli ef</w>
H i
GB I</w>
Expen ses</w>
Cur rent</w>
Co ven
Ch apter</w>
CE O</w>
Bear ingPoint</w>
As sets</w>
5 5</w>
2 3
1. 5</w>
we b</w>
veri fication</w>
un due</w>
th eless</w>
susp ect</w>
sto p</w>
prin t</w>
one Cali
oneCali bre</w>
month ly</w>
fulfi l</w>
ever theless</w>
ere es</w>
di ly</w>
di an</w>
der ing</w>
col labor
as ks</w>
an g</w>
al isation</w>
T RAN
Sub jects</w>
St oneCalibre</w>
SIGN ATURE</w>
P at
M C</w>
J eff
In forma
D at
Capit alized</w>
Announ cements</w>
н ы
ил и</w>
ver sions</w>
v is</w>
un d
prof ession
p an
on i</w>
norm ally</w>
li s</w>
inst al
inadver tent</w>
es a</w>
emp has
e ligible</w>
dis cri
depos ited</w>
continu ity</w>
compu ting</w>
asi- Security</w>
app ear</w>
Wh ite</w>
V ol
S EC
Reg istered</w>
Re financing</w>
Qu asi-Security</w>
O US</w>
O S</w>
Nor way</w>
Min or</w>
In Bev</w>
H ar
Gran t</w>
EXHIB IT</w>
Cor ruption</w>
Cent ral</w>
Cam p
ANE OUS</w>
5 00
y /
sel ling</w>
sam ples</w>
rem entioned</w>
pseudony ms</w>
pre li
plan ning</w>
om itted</w>
ock et</w>
mo tion</w>
i ding</w>
discus sed</w>
direc ts</w>
comp ar
borrow er</w>
assess ed</w>
afo rementioned</w>
UN D</w>
S AC
P referred</w>
P OS
Man u
Jeff eries</w>
FO IA</w>
ADD RE
AB RY</w>
л ю
е р
г о</w>
ur ich</w>
up hold</w>
there under</w>
t p
subs istence</w>
solic itors</w>
reques ting</w>
re production</w>
prep ay</w>
poss ess</w>
orm ant</w>
mortgag e</w>
len ding</w>
instruc ted</w>
imp air</w>
i ms</w>
en cies</w>
dis ability</w>
compr ising</w>
ass ess</w>
Z urich</w>
W B</w>
R os
Provi ding</w>
P DF</w>
MIS CELL
MISCELL ANEOUS</w>
MA N</w>
Leg a</w>
Comp ulsory</w>
A F</w>
9 9
4 The</w>
2 7.1</w>
wor k
v ements</w>
u n</w>
ti ble</w>
th on</w>
re taining</w>
re al</w>
proc uring</w>
pec ts</w>
pe ople</w>
m ar
l ess
int elligence</w>
fun ded</w>
engag es</w>
draw n</w>
compens ate</w>
US A</w>
Tre asury</w>
Th at</w>
Sp anish</w>
NU MBER</w>
L PE</w>
Dele te</w>
D AM
C enter</w>
Advis er</w>
A ustr
ww w.
ur b
un d</w>
tur no
turno ver</w>
trans lation</w>
syndic ate</w>
sus tained</w>
substit uted</w>
sen se</w>
resc in
res ignation</w>
privileg es</w>
preli minary</w>
orn ton</w>
non- use</w>
memb ership</w>
i r</w>
fo ot
disp la
dela ys</w>
de tail</w>
curren cies</w>
contempor aneous</w>
con cep
borrow ing</w>
b ran
au dit
Th ornton</w>
TER MS</w>
Struc ture</w>
St eering</w>
Seri e</w>
ST S</w>
RE G
R s</w>
Poli cies</w>
PROT ECTION</w>
ON AL</w>
NO T</w>
NE OS</w>
M E
K e
Int esa</w>
I MAN</w>
Go ods</w>
F R
Col umn</w>
Cap acity</w>
Accord o</w>
1 7.4</w>
tra ordinary</w>
sub- contractor</w>
ser vers</w>
ren ch</w>
purpor ts</w>
ph ot
pa olo</w>
n ever</w>
in duce</w>
import ance</w>
e ase</w>
de t
beli ef</w>
San paolo</w>
S t</w>
S T</w>
Ru le</w>
R ol
Licen sed</w>
G P</w>
Frankfur t</w>
F rench</w>
DAM AG
Contrac tor</w>
AGE MENT</w>
к а
ver acity</w>
resid ence</w>
re hen
pol ated</w>
ong st</w>
og ous</w>
o dy</w>
n d</w>
iz es</w>
it em
invol ves</w>
in forma
il s</w>
f ts</w>
emphas is</w>
em es</w>
consider ations</w>
compli ant</w>
col lated</w>
cl ear
challen ge</w>
c el
ass ert</w>
am ongst</w>
ad line</w>
Wor king</w>
Sup er</w>
R F
Par te</w>
P ass
Oak ley</w>
M it
M AR
I G
Ex it</w>
Coun cil</w>
Consul ting</w>
Confi den
Cla ims</w>
C O</w>
Bow line</w>
Acknowledg ed</w>
A E</w>
4. 4</w>
4 1</w>
30. 11</w>
201 6</w>
tech no
ser ver</w>
sec tor</w>
re verse</w>
no -
negli gently</w>
m y</w>
li a
here with</w>
g o</w>
fe asi
est one</w>
divul ge</w>
di min
d its</w>
cre ating</w>
cir cul
c tion</w>
T GT
TGT G</w>
S ta
PRO JECT</w>
Loc al</w>
Conflic t</w>
C li
14. 2</w>
usu ally</w>
un related</w>
u re
scha ft</w>
renew al</w>
r é
qu ote</w>
pric ing</w>
pan el</w>
objecti ves</w>
mu ch</w>
lo ok</w>
is ations</w>
h ouse
form er</w>
exp la
ess ence</w>
es /
ention ally</w>
e ma
du le</w>
den ominated</w>
continu ed</w>
contemp lation</w>
concep ts</w>
ch ed</w>
bre w</w>
ani ed</w>
analys ts</w>
accomp anied</w>
W CP</w>
Un availability</w>
Tran s
T esting</w>
S la
Pr ic
P ower</w>
M ill
In c</w>
Hi gh</w>
Ex empt</w>
Equ itable</w>
Comm on</w>
CLA USE</w>
Bid ders</w>
B RAN
Assign or</w>
5 5
2 3.
13. 3</w>
vol untarily</w>
uti li
terr itory</w>
recommend ations</w>
om e</w>
off ering</w>
ex pl
dis h
deduc tions</w>
compon ents</w>
comp rehen
Top co</w>
SOW s</w>
P UR
N on</w>
EC 3
CON T
y r
wind ing
ti x</w>
sh e
she et</w>
se ly</w>
res ources</w>
rec i
per links</w>
it ability</w>
in ing</w>
hy perlinks</w>
h os
fur ther
form ance</w>
fir st
explan ation</w>
examin ation</w>
er a
equival ents</w>
end ors</w>
e de</w>
draw al</w>
des pat
con cluded</w>
com promise</w>
cla ssi
as t</w>
appro vals</w>
anal ogous</w>
al i</w>
With drawal</w>
WARRAN TIES</w>
Rev enue</w>
Pi per</w>
Netw ork</w>
Lin ks</w>
Invest ors</w>
Inter polated</w>
In cid
Fact book</w>
Ex tended</w>
Equi tix</w>
En c
Cop y</w>
Co ver</w>
Bre x
Assign ee</w>
Anti- Corruption</w>
ADDRE SS</w>
AC CEP
AB LE</w>
8 8
‎ 10</w>
tribu tion</w>
sel ection</w>
por ted</w>
pen alty</w>
or s
oc cup
n formation</w>
man age</w>
j oin
g sg
exp ended</w>
dis solution</w>
cons ortium</w>
attach ing</w>
assign able</w>
________________ ___</w>
TRI P
G ene
FI C
Comp any
Chamb er</w>
2 6.1</w>
ор м
vis -
un ning</w>
tu red</w>
substan tive</w>
soci été</w>
sk ills</w>
s .</w>
receip ts</w>
or ic</w>
ob ile</w>
main tains</w>
licen sing</w>
is /
instit utions</w>
h ouse</w>
further ance</w>
ew ater
ewater house
es tic</w>
endor ses</w>
dom estic</w>
control lers</w>
ay ing</w>
automa ted</w>
at ories</w>
articl es</w>
am ble</w>
al though</w>
Solic itors</w>
So F
SoF i</w>
S and
RE QU
Pric ewaterhouse
Ordin ance</w>
NO V
Mo tion</w>
Lever age</w>
In tra-Group</w>
He dging</w>
F reedom</w>
F it
E IR</w>
D ormant</w>
D TT
D ED</w>
Cri me</w>
B CM</w>
7 7
533,333,333.3 3</w>
13. 1</w>
11. 4</w>
- vis</w>
w ide</w>
sequ ent</w>
profession als</w>
ob served</w>
n ull</w>
n evertheless</w>
inno c
innoc ently</w>
design ate</w>
de -
d a</w>
cri me</w>
comprehen sive</w>
c ally</w>
as certain</w>
Sec ure</w>
Privileg e</w>
P e
O T
M I
Con sent</w>
Associ ate</w>
9. 3</w>
2 We</w>
- of-
……………………………… ………</w>
ф орм
Стор он
v in
truc ture</w>
tig ate</w>
th with</w>
th in
t al</w>
subscri ption</w>
rup t</w>
over view</w>
min utes</w>
mem ory</w>
ma s
m ento</w>
interpre tations</w>
interf ere</w>
ins titute</w>
infring e</w>
in defin
in convenient</w>
exper tise</w>
em er
dec ree</w>
contribu ted</w>
c on</w>
ateg ory</w>
as tructure</w>
annu ally</w>
adjus ted</w>
accru e</w>
a x</w>
________________________________ ___</w>
Sub sequent</w>
S. A</w>
S ir
REPRESEN TA
Pricewaterhouse Cooper
PricewaterhouseCooper s</w>
Prec edent</w>
Poli cy</w>
Neg oti
Mat ters</w>
M un
LE ON
J ust</w>
Fran c
F E
En for
De b
Credit or</w>
Comp e
Bas ic</w>
As s
Ap ax</w>
An d</w>
Am ounts</w>
Adjus ted</w>
AC T</w>
20 0</w>
2 nd</w>
y ment</w>
vul ner
ru n</w>
rec over
pre- existing</w>
organ ized</w>
o p</w>
negoti ated</w>
mo de</w>
in quiries</w>
consumma ting</w>
conf erred</w>
coll ecting</w>
co- investors</w>
ati n
as pects</w>
allow ing</w>
al ter</w>
ab ling</w>
TI N
SU PP
SUPP LI
IN VE
I denti
EURO PE</w>
ET C</w>
EM K</w>
EC3 A</w>
Disclos ed</w>
D ate
…………………………………………………… …</w>
ь м
ис ьм
tr e</w>
sub- paragraphs</w>
sta mp</w>
rog as</w>
minim ise</w>
manu fac
li on</w>
la tive</w>
l g
is lative</w>
in ding</w>
impli cations</w>
id es</w>
gi fts</w>
gen der</w>
g .com</w>
fur thering</w>
first -
esell schaft</w>
era sure</w>
ei r
compe l</w>
ch es</w>
bas es</w>
bal ance</w>
appro ving</w>
announ ce</w>
Wh ether</w>
T en
SEC UR
S. à</w>
Pet rogas</w>
P L</w>
OC U
NOTI CES</w>
Mi lan</w>
LEON I</w>
Incid ent</w>
I ts</w>
GRO UND</w>
Enc ryption</w>
ED G</w>
DL R</w>
Brex it</w>
BACK GROUND</w>
AT M</w>
200 8</w>
200 5</w>
12. 2</w>
1. 7</w>
- B
veri fy</w>
t ter
superse ded</w>
situ ated</w>
safeguar ded</w>
review ing</w>
remedi able</w>
rem uneration</w>
r ic
purchas ing</w>
pro gram</w>
origin als</w>
min or</w>
los t</w>
impro vements</w>
g oing</w>
fun gsg
fi eld</w>
dg et</w>
decl ar
Wirtschaftsprü fungsg
Sub mitting</w>
RE S</w>
Pur poses</w>
M erg
In sider</w>
IN DE
I s</w>
Hol d
Gene thon</w>
D r.</w>
C U
Bu dget</w>
9 0
/ 4
公 司
о в
un published</w>
success fully</w>
ster dam</w>
solic it
sign s</w>
s quare</w>
recommend ation</w>
re organisation</w>
ra z
perf ect</w>
ot yp
li h
it als</w>
i e</w>
hand ling</w>
for thwith</w>
foot note</w>
en g
ell er</w>
dro la</w>
disp atch</w>
custom ary</w>
consoli dation</w>
claim ed</w>
certi ficates</w>
c an
bel l</w>
atin gs</w>
anti- money</w>
all ing</w>
ak a</w>
ag ing</w>
ad herence</w>
Wor ker</w>
U T</w>
Stat us</w>
ST RU
ST ELL
N ature</w>
Iber drola</w>
I X</w>
H ot
D AT
Camp bell</w>
Bu ilding</w>
Am sterdam</w>
Acc enture</w>
ADVISOR S</w>
ACKNOWLEDGE MENTS</w>
7 0
u es</w>
supervis or</w>
sub rog
sa w</w>
releas es</w>
rela tions</w>
refer ring</w>
ow es</w>
n a
in effective</w>
im poses</w>
i. e</w>
fi l
engin e
ee ts</w>
d or</w>
contrav ention</w>
be aring</w>
ati ves</w>
appli c
War saw</w>
TS L</w>
SUPPLI ER</w>
Ri ver
Merg ers</w>
Ins tru
IP Rs</w>
INVE ST
INDE MN
I mp
Dama ges</w>
COUN TER
C it
B RE
AC H</w>
95 /4
95/4 6/EC</w>
198 8</w>
w ee
ul ly</w>
tu res</w>
there on</w>
temp or
su mp
situ ations</w>
sh ort</w>
s chedu
qu o
pu lation</w>
pos tage</w>
plac ing</w>
pl ant</w>
phr ase</w>
per pe
p. m.</w>
p ledg
p ect</w>
overn ight</w>
main taining</w>
intermedi aries</w>
im porting</w>
i o
extinguis hes</w>
ei er</w>
descri b
cover ing</w>
cl ari
c am
budg ets</w>
be v</w>
audit or</w>
attemp ted</w>
appe al</w>
adjus tment</w>
a. m.</w>
Wor kers</w>
WIT H</w>
WA IV
Up date</w>
SS S
SSS LE
SSSLE II</w>
S ur
Re al</w>
RF Q</w>
R ates</w>
Quar ter</w>
Partn er
P resent
Non- disclosure</w>
J ames</w>
In ternal</w>
Hist oric</w>
D OCU
CV C</w>
CA P</w>
C TION</w>
Brand bev</w>
B raz
B E
Altern ative</w>
5 B
3,33 3,333.3
. 2</w>
- 8
披 露
……………………………… ……</w>
wh ich
vehic les</w>
ti ves</w>
sub- license</w>
si on
sg ate</w>
sett ling</w>
res ign
ren dering</w>
recover able</w>
re at</w>
pl ying</w>
parti ally</w>
om mo
is m</w>
industr ial</w>
high est</w>
form ing</w>
effici ently</w>
call ed</w>
calcu lation</w>
bur g</w>
bid ders</w>
assign ing</w>
ai ms</w>
achi ev
acc ommo
Su per
ERE D</w>
E p
C BN
CBN A</w>
A f
6. 3</w>
2. 3
0 1</w>
.... .</w>
е ль
à -vis</w>
yr us</w>
y thing</w>
wr ong
wit ness</w>
will in
willin gn
willingn ess</w>
where upon</w>
vis- à-vis</w>
val o
us sels</w>
urb an</w>
trus ted</w>
tp g.com</w>
ta g
stu dy</w>
secur ing</w>
schedu led</w>
sch emes</w>
renew ed</w>
ref und</w>
reduc tions</w>
recei v
rec h
re triev
prot otyp
prototyp es</w>
pres cribed</w>
p m</w>
oper ated</w>
nu al</w>
non- delivery</w>
ne ed
mis direction</w>
methodo logy</w>
mach ine</w>
integr al</w>
i or
greg ate</w>
f our
def ense</w>
dec ides</w>
d ri
constitu tional</w>
condi tional</w>
c ise</w>
ban ker</w>
b ally</w>
adver sely</w>
Sup port</w>
STELL CAP</w>
ST ER</w>
S an</w>
R ic
N ie
Me th
MA STER</w>
LEN DING</w>
In urban</w>
I ES</w>
FO LL
Deb tor</w>
Br ussels</w>
An nual</w>
Ag gregate</w>
AL TY</w>
9 4
8. 3</w>
6 5</w>
4. 5</w>
11. 3</w>
保 密
y et</w>
which ever</w>
un it</w>
subrog ation</w>
sh ort
regul arly</w>
pro pri
prev enting</w>
pl anned</w>
p oin
p e</w>
mut and
mutand is</w>
insu rances</w>
e .</w>
dis ruption</w>
compar able</w>
as cent</w>
ar d
ap plying</w>
al ed</w>
________________ __</w>
TI S</w>
Preli os</w>
Pan el</w>
P E
N. V.</w>
N Y</w>
Mo dule</w>
Mil estone</w>
Execu ted</w>
El dor</w>
Av ascent</w>
Acqu i
1 Each</w>
承 诺
vir tual</w>
vehic le</w>
valo q</w>
un ethical</w>
shor ter</w>
se as</w>
ron t</w>
respon dence</w>
resol ve</w>
rep udi
recti fy</w>
receiv ables</w>
recei vable</w>
qu ire</w>
progr am
pro- assignee</w>
price- affected</w>
por tion
ou l
o le</w>
mil lion</w>
lg eier</w>
lap se</w>
inser ted</w>
indemni fication</w>
in quiry</w>
i ded</w>
f lo
exerc ises</w>
deli ber
de adline</w>
co- operation</w>
co t
certain ty</w>
caref ully</w>
c essi
br ings</w>
authenti city</w>
appropri ation</w>
an a</w>
all -
access ing</w>
________________________________ ____</w>
________________ _</w>
W1 K</w>
Vol untary</w>
Sup pl
Speci ality</w>
R unning</w>
Pri mary</w>
P. O</w>
Own ers</w>
Offic er</w>
Mun ich</w>
Multi employer</w>
Month s</w>
J as
IT P</w>
IP I
I K</w>
HOL D
Execu tion</w>
E l</w>
DAMAG ES</w>
Cor respondence</w>
Comp u
Braz il</w>
Associ ation</w>
Al v
Al though</w>
Al lgeier</w>
AD IB</w>
A valoq</w>
A FFI
12. 4</w>
y le</w>
threat s</w>
su itability</w>
speci fying</w>
ones ty</w>
mp tly</w>
l ord</w>
k -
it ar</w>
engine er</w>
eff ectively</w>
divid end</w>
con version</w>
compens ated</w>
clusi on</w>
b ly</w>
au x
ati vely</w>
assess ing</w>
ak e
T imes</w>
T ER</w>
Sup ply</w>
REC IPI
Pro mptly</w>
P B</w>
O th
Non- Reliance</w>
MAN AGEMENT</w>
M Y
Informa tion
Custom er</w>
CG M
Ac ting</w>
9. 3
任 何
от в
отв ет
ответ ств
а ци
zi oni</w>
x ed</w>
winding -up</w>
w eg
to p</w>
ti n</w>
tap es</w>
star ting</w>
ss -up</w>
sp ace</w>
si der
safeguar ds</w>
recogn izes</w>
qu otation</w>
practi cally</w>
pe tition</w>
organ ised</w>
lo s</w>
lev els</w>
item ised</w>
ir k
investig ate</w>
insol vent</w>
indic ating</w>
il st</w>
gro ss-up</w>
gor ith
gh out</w>
form er
former ly</w>
follow ed</w>
first- class</w>
ever ything</w>
epend ent</w>
en visaged</w>
em ble</w>
e ure</w>
dep lo
comple ting</w>
car ve-
bur den</w>
appoin ts</w>
al gorith
al d</w>
access ed</w>
V al
SU B
SPECI ALTY</w>
Re t
Pro hib
P ackage</w>
P U
Oper ation</w>
Offi cial</w>
MIN ATION</w>
M r</w>
M and
LL C
Gi ven</w>
G yrus</w>
Franc is
F ront</w>
F ile</w>
Ex p
Chec ks</w>
Capit alised</w>
B et
AFFI LI
A k
5. 1
3. 5</w>
19 77</w>
11 th</w>
will ful</w>
val ent</w>
trib ut
suppli es</w>
su gg
sour ced</w>
pers pec
origin ally</w>
organiz ational</w>
o vers</w>
o om</w>
nomin al</w>
mut atis</w>
manag ing</w>
log s</w>
licen sees</w>
insu rer</w>
es c
enter tainment</w>
des ire</w>
co vers</w>
be long</w>
ar oom</w>
Take overs</w>
TRIP LE
TRIPLE A</w>
TIN G</w>
Me itar</w>
Manu life</w>
MY TRIPLEA</w>
IS T</w>
G B</w>
Equi valent</w>
Employe es</w>
AC Y</w>
- 1</w>
ин форм
и м
wrong ful</w>
ris a</w>
restric ting</w>
rescin ded</w>
pro- assignor</w>
pledg e</w>
pay ing</w>
p p
p ocket</w>
os atis</w>
odo logy</w>
lia ment</w>
k w
is ion</w>
inval id
ill ustr
identi ties</w>
identi fies</w>
ha i</w>
form ula
entit lement</w>
entit le</w>
enti rety</w>
emer ges</w>
effor t</w>
descri be</w>
de duct</w>
at ori
an s
all- inclusive</w>
ad ding</w>
a is
W o
VIS I
Take over</w>
TRAN SAC
Sum mary</w>
Si ze</w>
S UR
S AB
Present ation</w>
Pl ans</w>
P risa</w>
O L
Non- Bank</w>
Mill er</w>
Meth odology</w>
M R</w>
Ge osatis</w>
F AC
Environ ment</w>
EU R</w>
Credit Square</w>
Brand brew</w>
Bran ch</w>
Bl ack</w>
AS SIGN
A U
5 0
3 4</w>
3 3.
11 6</w>
1 We</w>
1 7.
withdraw al</w>
w ar
throu ghout</w>
ther n</w>
st re
sour cing</w>
s al
res s</w>
remedi ed</w>
quar terly</w>
purchas es</w>
perspec tive</w>
p ts</w>
p it
om s</w>
o logical</w>
lear ned</w>
ing ing</w>
fulfil led</w>
author ize</w>
as ed</w>
I PO</w>
Go od</w>
Ex ternal</w>
Ever light</w>
C riteria</w>
3. 4</w>
информ аци
и д
weg ian</w>
ver bal</w>
tr a</w>
sub- contract</w>
si mp
si ght</w>
s a</w>
reti ring</w>
reg i
re tains</w>
qu otations</w>
prohib ition</w>
procu rement</w>
per mitting</w>
or ical</w>
networ ks</w>
multi ple</w>
mi tigate</w>
ma k</w>
li en</w>
le ak
know ingly</w>
interrog atories</w>
im ental</w>
il d</w>
f re
ei ved</w>
dis ass
disass emble</w>
cri tical</w>
au di
are z</w>
ang hai</w>
an ti</w>
an o</w>
am ond</w>
af ter
TER MINATION</w>
Sh anghai</w>
Sch uman</w>
RECIPI ENT</w>
Pro portion</w>
Par liament</w>
PA Y
P ubli
O b
Nor wegian</w>
Nie len</w>
Ne mak</w>
Mo ody</w>
Mit re</w>
Mar sal</w>
L U
He alth</w>
H D</w>
FS MA</w>
EN S
Di amond</w>
Co -
C .
B GB</w>
Alv arez</w>
Acqu isitions</w>
6. 5</w>
6 9</w>
3 00
19. 3</w>
19. 2</w>
un g</w>
t elec
sub paragraph</w>
ris es</w>
pro mul
promul g
pro jects</w>
preser ved</w>
poin ts</w>
p ite</w>
over all</w>
oper ates</w>
oblig ate</w>
o vable</w>
non- performance</w>
no ted</w>
me als</w>
l ong
initi ative</w>
dat aroom</w>
cor ing</w>
conver tible</w>
________________________________ _</w>
SE L</w>
SE G</w>
Rem ovable</w>
PRO VISI
P SC</w>
O TP
HE SS</w>
Fur nis
DI RE
D .</w>
CS SEL</w>
B ec
5. 2
3 7</w>
200 9</w>
- 3</w>
……………………………… …………</w>
с я</w>
а ль
é s</w>
with draw</w>
ver bally</w>
uti l
un true</w>
sub mitting</w>
reproduc ed</w>
reg imes</w>
ran king</w>
quo ted</w>
plac es</w>
non- breaching</w>
mis appropriation</w>
min e</w>
it ely</w>
he dging</w>
gh ter</w>
ga ther</w>
et c.</w>
enh anced</w>
em ic</w>
diff er</w>
demonstr ated</w>
def ence</w>
de tr
cri ption</w>
canc el
author ising</w>
associ ations</w>
ar an
al it
al ist</w>
absol ut
Web er</w>
WARRAN TY</w>
WAIV ER</w>
V I</w>
Ti me
T E</w>
Sin ce</w>
SAB Miller</w>
S FO</w>
Rep e
Prot ecting</w>
Process es</w>
Port al</w>
PROVI DED</w>
N. A</w>
Mon th</w>
L ong</w>
L IS
K MR</w>
Jas mine</w>
Inform ación</w>
Imp aired</w>
I F</w>
Francis co</w>
Follow ing</w>
F T</w>
Direc tor
D s</w>
Con sider</w>
Company /
Clear water</w>
C I</w>
Bro ad
BN P</w>
A /
6 8
5B Z</w>
4. 2
2 7.2</w>
ü r
vio lating</w>
ut sch
us e
t ments</w>
t man</w>
signat ories</w>
remo val</w>
recogn ized</w>
rec ord
pro pose</w>
phot og
ne w
monit oring</w>
judic ially</w>
insu red</w>
he ading</w>
encumb rances</w>
dish onesty</w>
dep ending</w>
br inging</w>
borrow ers</w>
bl ank</w>
am i
allow s</w>
af for
ach es</w>
Z PA
ZPA D</w>
Regul ator</w>
PER S
OTP PB</w>
K F
H ER</w>
Du ly</w>
DIRE CT
Chec k</w>
Af ter</w>
Addi tionally</w>
7. 1
у ю
но й</w>
ени я</w>
w are</w>
w allbro
wallbro ok
wallbrook .com</w>
vis ually</w>
vis it</w>
uthenti cation</w>
u me</w>
u ghter</w>
trac ts</w>
tag u</w>
stat utes</w>
st ates</w>
restra in</w>
re-en actment</w>
re al
our ing</w>
numb ering</w>
non- solicitation</w>
lin ked</w>
ivers ity</w>
in e
illustr ative</w>
i gu
i ble</w>
for n
foli os</w>
exp an
ex t
en i
emb o
eir on</w>
dic es</w>
deliver ing</w>
correc tly</w>
commit tees</w>
comm enced</w>
caref ul</w>
c ategory</w>
borrow ings</w>
aud its</w>
at ta
assign ments</w>
as pect</w>
arrang er</w>
archi val</w>
ar a</w>
ad ap
absolut ely</w>
a part</w>
W here
Un iversity</w>
Sla ughter</w>
SARE B</w>
S ti
Reser vation</w>
R us
Pr o</w>
Pol and</w>
Oak tree</w>
OS I</w>
NE W</w>
Mon tagu</w>
ME DI
L an
Is ra
H a
Enfor cement</w>
De legate</w>
Counter parties</w>
Con sider
B E</w>
Ap eiron</w>
Agre ement
AP P
A uthentication</w>
8 E
7. 2
4800 19
1 7.1</w>
................................ ........</w>
资 料
代 表
withdraw s</w>
termin ates</w>
tempor ary</w>
tan e
resol utions</w>
rep air</w>
pre mi
ob jects</w>
mul tane
mas k</w>
loc ations</w>
jus ti
judg ement</w>
instit uted</w>
indefin itely</w>
i ang</w>
ful ness</w>
fac tors</w>
exp o
ec h</w>
declar ation</w>
conve yed</w>
com ing</w>
ci a</w>
cam ore</w>
bro ad
bon ds</w>
benefi ciaries</w>
a Cap</w>
Sy camore</w>
S G</w>
Registr ation</w>
Pro motion</w>
N IST</w>
I LI
H o
Furnis hing</w>
Direc tors</w>
An aCap</w>
Addres sees</w>
AL S</w>
… .
w inding</w>
vi an</w>
th ered</w>
suspec ts</w>
subordin ated</w>
stric test</w>
st ating</w>
sen der</w>
s u</w>
s chedules</w>
ru vian</w>
registr ations</w>
reduc es</w>
over seas</w>
os to</w>
or a</w>
oc cas
obser v
necess ity</w>
n eigh
neigh b
neighb ouring</w>
mess age</w>
m erely</w>
lin e/
licens ors</w>
l es
in ter</w>
hist orical</w>
hand led</w>
ga thered</w>
esti mate</w>
engin eering</w>
el lis</w>
detr imental</w>
der sgate</w>
custo dy</w>
cu co</w>
contribu tions</w>
con form</w>
classi fied</w>
cap abilities</w>
c all</w>
al /
admin istered</w>
accommo dation</w>
acc ede</w>
________________________________ _____</w>
Z ellis</w>
Wai vers</w>
Vit ruvian</w>
V i
TI C</w>
Sol utions</w>
STRU CTION</w>
S W1
Res pon
Preli minary</w>
Paragrap hs</w>
PP H</w>
PAR TS</w>
P AG
O cuco</w>
N osto</w>
N A</w>
Mo z
Mo re
Mal ay
M ic
Li abilities</w>
Le tting</w>
L OC
Isra el</w>
Indemn ities</w>
I D</w>
H L</w>
Fra mework</w>
For ce</w>
FOLL OW
Execu tive</w>
EX EC
EXEC U
EC 1A</w>
Disclos ers</w>
DE STRUCTION</w>
D anish</w>
Cur ren
Control ling</w>
Consult ancy</w>
Confiden cial</w>
Cir cum
COUNTER PARTS</w>
C P
C OR
Broad well</w>
Ba ird</w>
BRAN CH</w>
Al dersgate</w>
ACCEP TED</w>
: 00</w>
4 th</w>
4 HD</w>
1. 3
1 ,33
1,33 3,333,333.3
0 9</w>
/ Mezzanine</w>
……………………………… …</w>
xx x</w>
u b
trac t</w>
to o</w>
su ant</w>
sever ally</w>
reve aled</w>
remedi ate</w>
re ach</w>
ol d
m al
incid ent</w>
in tern
identi fying</w>
dou ble</w>
de eds</w>
comm its</w>
certi fication</w>
c ame</w>
b ase</w>
ar ial</w>
ag encies</w>
RE LE
RE E</w>
Mar k</w>
M M
I M</w>
Hold co</w>
FIN ANCE</w>
FIC ATION</w>
Exclusi vity</w>
CON TR
C M
Bar cla
9. 2
5 ,000,000</w>
4 9
香 港
各 自
…………………… ………</w>
т а
н е</w>
лю б
е д
z ger
zger ald</w>
v o</w>
un secured</w>
un a</w>
transi tion</w>
trac e</w>
tap e</w>
t ence</w>
sup ported</w>
subscri be</w>
ste in</w>
solic ited</w>
sec retary</w>
scre en</w>
satisf ying</w>
reser ved</w>
recogn ize</w>
public ity</w>
out -of-
out-of- pocket</w>
ot es</w>
nov ated</w>
mit h</w>
mer its</w>
l y-
ic an</w>
guaran tor</w>
g raphic</w>
franch is
formula e</w>
establis hing</w>
divid ends</w>
claim ing</w>
charac ter</w>
cessi ve</w>
cel ona</w>
assu ming</w>
ar t</w>
app en
am al
amal ga
all a</w>
algorith ms</w>
adequ ately</w>
________ ________</w>
Wirtschaftsprüfungsg esellschaft</w>
V Zampiga</w>
Un til</w>
UNDERTAK INGS</w>
Tri b
T ree</w>
T el</w>
T AR
St op</w>
Sir /
SO LIC
SM IT</w>
S. A.
S mith</w>
Restric tion</w>
Requi red</w>
R ob
R L</w>
Pro vision</w>
Per formance</w>
PAY MENT</w>
O s
MD C</w>
Li tigation</w>
Li fe</w>
HERE BY</w>
For sa</w>
Fit zgerald</w>
Equ ist
En ter
Dem and</w>
D P</w>
D AC</w>
D A
Cit i</w>
Can tor</w>
Bar celona</w>
B al
B EN
ASSIGN MENT</w>
A MEN
9. 4</w>
6 8</w>
/ o</w>
v est</w>
tic s</w>
sh owing</w>
reimbur sement</w>
ori gin</w>
need -to-
mi d-
mid- market</w>
int entionally</w>
in sufficient</w>
gen u
func tion
fif teen</w>
evid encing</w>
en abling</w>
el ects</w>
dis posed</w>
des pite</w>
contemp lating</w>
bran ch</w>
assign ees</w>
appropri ately</w>
ap pr
ach ing</w>
Un der</w>
Sur vi
Se par
S GB
SGB -
SGB- SMIT</w>
Offic ine</w>
DIRECT OR</w>
6. 1
1 In</w>
承诺 书
о б
м и</w>
и е</w>
е т</w>
П исьм
wri tings</w>
wai ving</w>
usi on</w>
u d</w>
speci fies</w>
six ty</w>
see ker</w>
res ign</w>
r atio</w>
pr ise</w>
pon ent</w>
over draft</w>
o king</w>
non disclosure</w>
mi gr
la bel
junc tion</w>
ir man</w>
ior /Mezzanine</w>
invol untarily</w>
incid ental</w>
fail ing</w>
exis ted</w>
environ mental</w>
ent ory</w>
e dence</w>
describ ing</w>
dec omp
d ited</w>
cre dited</w>
cor p</w>
con junction</w>
compe tence</w>
cl e</w>
circul ate</w>
b id</w>
at ures</w>
amb igu
amalga mation</w>
al location</w>
al id
accur ately</w>
Wh ole</w>
W H
V ia</w>
Us er</w>
T ower</w>
Sun seeker</w>
Sir/ Madam</w>
Sen ior/Mezzanine</w>
SE 1</w>
S DL
SDL C</w>
REQU I
REQUI RE
Ph one</w>
Pass port</w>
P o
Os lo</w>
OR K</w>
OR IG
N ig
Malay sia</w>
J SC</w>
In adequacy</w>
INC .</w>
I M
H er
H el
H A
Fra ud</w>
Ex traordinary</w>
Ex ponent</w>
Ex per
Equist one</w>
Emplo yer</w>
Cre dits</w>
Coun ty</w>
Compu ting</w>
Administr ative</w>
8E J</w>
75 ,000,000,000</w>
6. 4</w>
y ha
yha ven</w>
stor ing</w>
si multane
reli gi
re w
promulg ated</w>
prohib iting</w>
pro ving</w>
present ly</w>
perpe tual</w>
par a</w>
p la
mon e
in clusion</w>
er ring</w>
e asi
de faul
d u</w>
counter claim</w>
comp rises</w>
ci als</w>
c y
an tu
Vic t
Th reat</w>
T w
Survi val</w>
Six iang</w>
Separ ate</w>
SERVIC E</w>
River side</w>
Pur suant</w>
PRO PER
P OR
Ke yhaven</w>
In come</w>
Des cription</w>
BRE ACH</w>
B A</w>
9. 4
+ 9
…… .
— —
ф ид
ст о
£ 1</w>
vari ations</w>
struc tures</w>
sta ges</w>
roun ding</w>
res training</w>
pro- discloser</w>
pos ted</w>
pos si
por ts</w>
p or</w>
p ages</w>
our selves</w>
origin ated</w>
or atori
observ ance</w>
n i
manu als</w>
ma ted</w>
m oratori
leas es</w>
intro duce</w>
instal ments</w>
in -
imp air
impair ment</w>
fav or</w>
ess ential</w>
en join
el f-
e k
e Ba
dis coun
dic al</w>
decomp ile</w>
counter signing</w>
contrac ted</w>
con clude</w>
clos ely</w>
cent re</w>
carve- out</w>
c /o</w>
b arg
as se</w>
ad judic
aci fic</w>
Wo od
Un i
TS S</w>
TR Y</w>
TH AT</w>
ST AG</w>
S elf-
S af
P te</w>
P oul
P acific</w>
O x
Non disclosure</w>
More over</w>
Mater i
Ma ximum</w>
Invest corp</w>
IN CLU
IL L</w>
I MP
Exp enditure</w>
Ep stein</w>
EX CEP
EC2 R</w>
Cir cle</w>
COUN TRY</w>
Am end</w>
ACKNOWLED G
8 5</w>
7 4
7 2</w>
7 /
6 6</w>
15 -
0 7</w>
x i
under go</w>
twent y</w>
twent y-
ten ed</w>
tax ing</w>
su b</w>
st ock
s able</w>
rec ur
quali fy</w>
pri m
prim arily</w>
portion ate</w>
om e
oc cu
non- compliance</w>
log o</w>
less er</w>
inter im</w>
fra mework</w>
expo sure</w>
er ased</w>
enc ryp
emplo ying</w>
deri v
conf erring</w>
bu il
b ar
as cer
antu m</w>
allo tment</w>
acqui rer</w>
ac tive</w>
________ ______</w>
V DD</w>
SECUR ITY</w>
SE QU
S k
Rol and</w>
Requ ests</w>
Pur chas
O f</w>
Indemn i
Fi rew
Develop ment</w>
Des ignation</w>
Dec ision</w>
De utsch
CON SEQU
Bo dy</w>
BAN K
B erger</w>
B G</w>
5 3
0 .
本 承诺书
其 各自
ци аль
фид ен
фиден циаль
у д
он фиденциаль
ли ц
vis its</w>
v a</w>
ut ual</w>
twenty- four</w>
trans posed</w>
ti z
ten ant</w>
star te</w>
ser ies</w>
se vered</w>
ri de</w>
rep aying</w>
regu lar</w>
re vis
princip le</w>
pos itions</w>
pit ality</w>
per cent</w>
pass word</w>
ou lih
oulih an</w>
ol ution</w>
nomin ate</w>
need-to- know</w>
min d</w>
me zzanine</w>
li j
leg ible</w>
lat ter</w>
injunc tions</w>
infr astructure</w>
in complete</w>
il la
i ph
hos pitality</w>
h ill</w>
h ands</w>
fac tor</w>
exce eding</w>
es ter</w>
embo di
em be
earli est</w>
eBa o</w>
dis regarding</w>
dep end</w>
deliber ately</w>
compu ters</w>
c ross-border</w>
broad ly</w>
b er</w>
as s</w>
ark trace</w>
an ti
an im
V eri
U AE</w>
Transf eree</w>
Te lephone</w>
Si g
STRI C
SH IP</w>
SE VER
S cho
Ret ention</w>
Res earch</w>
Rec h
RE MEDI
REMEDI ES</w>
Poul try</w>
Pla za</w>
P reference</w>
P JSC</w>
On ce</w>
OR Y</w>
Nov a</w>
N ext</w>
Mat ter</w>
M utual</w>
Lo key</w>
LOC AL</w>
IC TA</w>
HOL D</w>
H oulihan</w>
G ar
G U
Emplo yment</w>
EURO HOLD</w>
DI FC</w>
D arktrace</w>
Consequ ently</w>
Circum vention</w>
Bre ak</w>
B I
A/ S</w>
A starte</w>
7. 5</w>
4 2.
4 /
30. 6</w>
29. 20</w>
1 6.1</w>
view s</w>
tion s
replac es</w>
re in
pass port</w>
obser ves</w>
form u
fi ci
feasi ble</w>
encryp ted</w>
en ess</w>
distribu tions</w>
dis tin
destro ying</w>
continu ation</w>
cons isting</w>
con vers
collabor ation</w>
canc els</w>
c t</w>
al located</w>
accomp lished</w>
________ ____</w>
Where as</w>
S E</w>
PROPER TY</w>
PL s</w>
P I</w>
Indemnit ee</w>
F U
D -
Contrac tual</w>
Continu ity</w>
AG ENT</w>
сто я
о м</w>
л а
и т
your selves</w>
visi an</w>
tion ed</w>
t asks</w>
sur rounding</w>
suppl ements</w>
sump tion</w>
suc cessive</w>
sub processor</w>
some thing</w>
s i</w>
ryp tog
ph ase</w>
pass u</w>
over sight</w>
ortis ation</w>
moratori um</w>
mone ys</w>
mis sion
mater i
leg islative</w>
lac k</w>
label led</w>
kw right</w>
jo b</w>
is ted</w>
is en</w>
i on
i eld</w>
franchis ement</w>
forn ia</w>
fi re</w>
exam ples</w>
ex emp
ev ent
est ones</w>
en franchisement</w>
dri ves</w>
dis posing</w>
dep reci
den dum</w>
deb it</w>
conver ted</w>
cir cu
cancel lations</w>
ay er</w>
aux money</w>
attorne y-
as te</w>
an ony
am ortisation</w>
ad a</w>
accid ent</w>
UR ATION</w>
Trans mission</w>
TRANSAC TION</w>
Su c
Sen sitive</w>
S. r.l</w>
S cot
RE D
R ock
Practi ces</w>
Mar tin</w>
Main tain</w>
LT D.</w>
L ayer</w>
K E
J oh
Initi ative</w>
F T
ENTI AL</w>
E very</w>
E V
Dis enfranchisement</w>
D URATION</w>
Con fidenti
Com mission
Co visian</w>
Car Next</w>
Cali fornia</w>
Cal culation</w>
C UR
C F
B y
B OR
B ER
Ar kwright</w>
Anti- corruption</w>
Addres ses</w>
AMEN D
A LE</w>
: 1</w>
6 AF</w>
200 2</w>
12. 3</w>
1 11</w>
1 ,000,000</w>
…… ….
| or</w>
us al</w>
up s</w>
un reasonable</w>
ti vely</w>
ta ges</w>
t /
sp onsor</w>
se x</w>
referen ced</w>
recomm end</w>
re vo
re a
photog rap
per io
particul ars</w>
minim ize</w>
in accurate</w>
fur thermore</w>
form ed</w>
financi ers</w>
em erg
e book</w>
dissemin ate</w>
conver t</w>
cont acted</w>
con tribute</w>
by- case</w>
ar ound</w>
and |or</w>
al tered</w>
al ong</w>
ais al</w>
ai c</w>
_ Name</w>
TI ONAL</w>
T ERED</w>
Sub -
Reg ion</w>
Qu antum</w>
P lan
N a
Moz aic</w>
Ma intenance</w>
Li ber
IT HER</w>
G PL</w>
C FO</w>
Benefi ciaries</w>
Austr alia</w>
Al tman</w>
2 80
................................ ................................
я з
с л
р у
К онфиденциаль
v ations</w>
tion /
ter house</w>
tak e
supplement al</w>
recur ring</w>
re construction</w>
r ace</w>
over ride</w>
oper ative</w>
non exclusive</w>
ne tting</w>
n ings</w>
le vi
la s
ing di</w>
g e
fair ness</w>
ev ente</w>
es h
en quire</w>
en e</w>
embe d
embed ded</w>
direc tions</w>
despat ched</w>
def end
dec reas
combin ed</w>
cl early</w>
budg et</w>
bo x</w>
ar isen</w>
anticip ation</w>
and /</w>
after -
ad emic</w>
________________________________ __</w>
Y ingdi</w>
War burg</w>
Ver sion</w>
VI VE
VIVE SC
VIVESC IA</w>
V 20</w>
U m
Th om
Sin cerely</w>
Ric evente</w>
REPRESEN TATION</w>
REG IS
RED IT</w>
R .
Provi ded</w>
Parti al</w>
Ob j
ORIG IN
ORIGIN AL</w>
OBLIG ATION</w>
Non- Cons
Non-Cons enting</w>
NON- SOLIC
N A
Mon ey</w>
Maj eure</w>
Ma x
L and
J er
J V20</w>
IR S</w>
Hot els</w>
H M</w>
For ms</w>
F all
ER SHIP</w>
EQ H</w>
EN G
E state</w>
De f
DL A</w>
D T</w>
Contrac tors</w>
Con tribution</w>
Char terhouse</w>
C ha
C Y</w>
Author isation</w>
Att ached</w>
Ass ess
Accel eration</w>
Ac ademic</w>
AT ES</w>
AL AN
AG REE</w>
ACKNOWLEDGE MENT</w>
4. 3
4 You</w>
3. 6</w>
3 8</w>
3 8.2</w>
3 8
11. 2
10. 3</w>
................ ....</w>
…………………… …………</w>
y ens</w>
un disputed</w>
tr ation</w>
to bel
tobel lo</w>
simultane ously</w>
reimbur sable</w>
refer able</w>
r d</w>
premi um</w>
poss ess
pos t-
ou ts</w>
ne eded</w>
leas ed</w>
fulfil ment</w>
ere r</w>
emp lated</w>
emerg ency</w>
dis t
depos ition</w>
de fici
custom arily</w>
consis ts</w>
coll ect</w>
b our</w>
author ship</w>
ap s</w>
ani a</w>
ake ham</w>
a il
Th akeham</w>
Stand still</w>
Sec retary</w>
SO FT
S AS</w>
Por tobello</w>
P lac
MN PI</w>
LE G
J PLs</w>
Ins tit
IT S</w>
G TO</w>
Cont emplated</w>
CGM L</w>
Au dit</w>
Al tium</w>
AN T</w>
A ut
-to- date</w>
+9 71</w>
и х</w>
ven ues</w>
valu ations</w>
ur a</w>
un likely</w>
un anim
ud ent</w>
u ters</w>
ti es
th aka</w>
tax able</w>
ta zione</w>
t ables</w>
summ ar
str asse</w>
s ort</w>
review s</w>
regul ators</w>
qu al
prev ention</w>
p ar</w>
on fidential</w>
om b
no- contact</w>
mil estones</w>
inter bank</w>
i. e.</w>
fi el
ex cise</w>
ex cer
evalu ations</w>
esti mated</w>
en sures</w>
el er
draw ing</w>
discri mination</w>
discri min
dis able</w>
det ect</w>
desi red</w>
depreci ation</w>
depos it</w>
de leg
contrac tually</w>
co- investor</w>
calcu lating</w>
buil dings</w>
ber all</w>
att end</w>
archi ve</w>
app arent</w>
al ing</w>
ag r
aci ones</w>
W ILL</w>
V ul
V endors</w>
Un authorized</w>
U. S.A</w>
Tr ust</w>
Thom son</w>
TR A</w>
TI NU
Sum ma</w>
Suc cess
Scot land</w>
SU CH</w>
SS L</w>
S tr
S M</w>
Res olution</w>
Re uters</w>
Re as
R atio</w>
PAG E</w>
P re-
P ay
Non- solicitation</w>
M or
LI ED</w>
Ind ependent</w>
IT ATION</w>
IMP LIED</w>
I thaka</w>
H G
Grou ps</w>
G L
FS N</w>
FOLLOW S</w>
FE ES</w>
F iling</w>
EN CES</w>
EC 4
E F
Direc t</w>
Coven ant</w>
Confir med</w>
Compe tition</w>
Co des</w>
Chec k
CON TINU
Br ill</w>
Be tween</w>
Bal ance</w>
Att or
Ab out</w>
ALAN TRA</w>
AC ON</w>
A RE
9 8
3 6.1</w>
3 5
29 6
14. 4</w>
1. 2
0 8</w>
保密 资料
tter head</w>
thin k</w>
sum ed</w>
roy alty</w>
res aid</w>
rea dily</w>
re ars</w>
proc ures</w>
non public</w>
non eth
noneth eless</w>
mil arly</w>
low er</w>
lea ving</w>
ga thering</w>
function ality</w>
fin ds</w>
f ace</w>
el ections</w>
e u</w>
disc rep
deriv atives</w>
d own
correc tion</w>
b i
appear ing</w>
all s</w>
afo resaid</w>
advertis ing</w>
ab o
Seri ous</w>
S L</w>
RE SPEC
Pos t
Pat ents</w>
PROVISI ONS</w>
In dia</w>
IN SI
G CA</w>
Di gital</w>
D r
Car ol
CO MM
B reg
6 The</w>
4 13</w>
2. 4
. com
ответств ую
ye e</w>
withdraw n</w>
ure Circle</w>
te le
t us</w>
solicit ations</w>
sever ance</w>
sch ild</w>
s av
roun ded</w>
restra int</w>
rep ayments</w>
regu lating</w>
regi me</w>
re voc
re venues</w>
r in
pro b
pr udent</w>
oth schild</w>
ones ia</w>
old man</w>
off -
od ying</w>
o res</w>
ner ability</w>
m obile</w>
lop e</w>
lo oking</w>
licen see</w>
junc tive</w>
j ust</w>
it es</w>
inv entory</w>
ic ious</w>
fun d
fr on
enti onal</w>
emb odying</w>
e hold</w>
discover ies</w>
dis mis
cor e</w>
conflic ting</w>
comp rise</w>
comm ences</w>
clu des</w>
bri dge</w>
bre l
bo dily</w>
b ull</w>
ation /
at i</w>
arg ue</w>
any where</w>
altern ation</w>
alid ad</w>
after- Tax</w>
ad d</w>
accomp lish</w>
a to</w>
a c</w>
XX XXX</w>
W est</w>
Vul nerability</w>
Um brel
Ten or</w>
TH E
T or
Sign ee</w>
Sha red</w>
Self- Hel
Self-Hel p</w>
S CO
Ros s</w>
Repe ating</w>
REPRESENTA TIONS</w>
RE STRIC
R othschild</w>
Pro gram</w>
Per mits</w>
PROVI DER</w>
PAR IB
PARIB AS</w>
P ureCircle</w>
Nig eria</w>
Multi factor</w>
Mand ated</w>
M ore</w>
Lever aged</w>
K G</w>
J LL</w>
Inv es
Ind onesia</w>
In junctive</w>
GT R</w>
G ra
G oldman</w>
Fall back</w>
EXECU TED</w>
Dec ree</w>
DP E</w>
D NA</w>
Consider ation</w>
CON DI
C are</w>
Bet bull</w>
BANK ING</w>
BA Y</w>
Author isations</w>
AS T</w>
AB O
9 If</w>
9 6</w>
6 4</w>
6 1</w>
5 9</w>
4 00
3 -
14. 8</w>
1 /
0 6.
, 66
x x</w>
vo id
ut yens</w>
up -to-date</w>
t ext</w>
situ ation</w>
s tic</w>
retriev al</w>
re venue</w>
ra ising</w>
on to</w>
mo de
mis statement</w>
land lord</w>
initi ated</w>
explo itation</w>
es et
er n
ent ures</w>
dom ic
defaul ts</w>
d A</w>
comp ulsory</w>
coll ection</w>
cep tion</w>
c k
appro xi
appr aisal</w>
ami ly</w>
Sol on</w>
Pl c</w>
O IN
NOV AR
NOVAR TIS</w>
N dA</w>
Month ly</w>
M .</w>
L utyens</w>
L .</w>
INDEMN I
IC E</w>
Fun ction</w>
EM E
EME A</w>
Dem ica</w>
D en
Ca use</w>
AR Y</w>
9. 6</w>
5. 5</w>
的 代表
…………………………………………………… …………</w>
на стоя
Сторон ы</w>
wai vers</w>
vulner abilities</w>
ver si
trus ts</w>
tri ment</w>
techno logies</w>
t ted</w>
sti c
ster ling</w>
sk i</w>
se t
row s</w>
resc ission</w>
res ource</w>
repe ated</w>
re v
r av
prot ections</w>
prohib itions</w>
possi bly</w>
obser vation</w>
neg l
leak age</w>
invoic ed</w>
int ending</w>
inno cent</w>
in capable</w>
il d
ic k
he ar</w>
gi ft</w>
forecas t</w>
fi ll</w>
f am
exce eded</w>
discre tions</w>
decreas e</w>
de triment</w>
d on
d ai
dai ly</w>
cons ist</w>
co ordin
circu it</w>
char ts</w>
ch ron
cap ac
bli c
avo iding</w>
arrang ing</w>
anc tioned</w>
ambigu ity</w>
alter ations</w>
advis es</w>
a verage</w>
a u</w>
W ords</w>
V III</w>
U TI
UTI LIS
UTILIS ATION</w>
TH ER
T arg
T O
T ES</w>
Scho eller</w>
Saf ety</w>
ST AT
SI ON</w>
SE LL
S al
S W
Re ti
RO M</w>
REC IT
RECIT ALS</w>
RE SERV
R atings</w>
Prin ted</w>
Pre amble</w>
Out sourcing</w>
Op portunities</w>
ON G</w>
O M
Mic ha
M AT
LI ANCE</w>
It ems</w>
Inv entions</w>
Instru ment</w>
HG GC</w>
For ward</w>
Fac ili
E ast</w>
Direc tion</w>
DTT P</w>
Curren cies</w>
Conflic ts</w>
Con ver
Com ments</w>
Car ry</w>
CONDI TIONS</w>
CON SU
COMP LE
C ard</w>
As signed</w>
AFFILI ATE</w>
A ten
9. 00</w>
6. 6</w>
5 6</w>
3 1.2</w>
2 Except</w>
19 6</w>
15- 21</w>
10. 5</w>
.... ..</w>
+ 49</w>
utili ze</w>
tr ic</w>
tig roup</w>
sta ge</w>
ser ious</w>
ru e</w>
ref usal</w>
pro portionate</w>
p t</w>
mon d</w>
me dical</w>
main der</w>
it y
is/ are</w>
indic ates</w>
incid ents</w>
impro ved</w>
impl ying</w>
fin es</w>
eth ics</w>
enter prise</w>
emin or</w>
ell ing</w>
e- by-case</w>
d é
consist ently</w>
conc eived</w>
comm is
clic k-
cir culation</w>
cas e-by-case</w>
aw ar
awar ded</w>
ascer taining</w>
ard ous</w>
ar m</w>
advertis ements</w>
WAR E</w>
Th ir
Targ ets</w>
SOFT WARE</w>
Re mainder</w>
REGIS TERED</w>
R om
PUR POS
PURPOS E</w>
OR S</w>
Nor thern</w>
Me di
ILI TIES</w>
Firew alls</w>
E ITHER</w>
Dr aw
Deutsch e</w>
Da vi
D eminor</w>
D O
Cop y
Con n
Ci tigroup</w>
Breg al</w>
A li
2 -
1. 8</w>
………… …</w>
у ю</w>
р е
о ж
д о
ат ель
zz a</w>
wr ite</w>
vers is</w>
u er
tribu tions</w>
tra int</w>
threat en</w>
sub- clauses</w>
su its</w>
sh ire</w>
servic er</w>
religi on</w>
red und
red act</w>
re lev
relev ance</w>
pre- requisite</w>
pre- contractual</w>
poss esses</w>
port folios</w>
par tly</w>
p d
over age</w>
nov ate</w>
mis sions</w>
me ets</w>
mani pulation</w>
ma j
m er</w>
l on</w>
issu ance</w>
iph er</w>
int entional</w>
in action</w>
gr ace</w>
g enders</w>
g an</w>
exam ine</w>
ev .
ev. en</w>
ep resentatives</w>
en actment</w>
e c</w>
dis rup
de o</w>
de i</w>
compe tes</w>
cl e
ci li
capit als</w>
calcul ate</w>
ca using</w>
bad ge</w>
b y
b es
b a
attorney- client</w>
ation ality</w>
announ cements</w>
and o</w>
altern ate</w>
ad os</w>
ach ments</w>
Y ield</w>
Wood ford</w>
W il
Veri fication</w>
Valu tazione</w>
Umbrel la</w>
UN IC
U. S.A.</w>
T ur
SH ARE
S p</w>
S ev.en</w>
Rus sia</w>
RESTRIC TIONS</w>
Pen sion</w>
P R
Op Risk</w>
O X
NON-SOLIC ITATION</w>
N ON</w>
N B</w>
Micha el</w>
MAN DAT
K o
K irk
Indemnit ees</w>
IT A</w>
INCLU DING</w>
I an</w>
H e</w>
F ri
EN CE</w>
E SS</w>
Di versis</w>
Design ating</w>
Dec ipher</w>
DE ED</w>
Coven ants</w>
C SC</w>
Ba h
Att achments</w>
Aten a</w>
AR I
AR E</w>
: 30</w>
9 5</w>
7. 6</w>
7. 3
5 The</w>
5 8</w>
4 500
36. 11</w>
3 2.3</w>
296 196</w>
20. 1</w>
19. 1</w>
15. 3</w>
14. 2
00 296196</w>
........................................ ....</w>
wh ilst</w>
under writing</w>
un disclosed</w>
tn ess</w>
spec im
ser ving</w>
scre ening</w>
ro oms</w>
rest ore</w>
quali fication</w>
prec edence</w>
pass words</w>
ori a</w>
op p
o od</w>
non- binding</w>
mat ely</w>
man ually</w>
l ates</w>
k /
is/ her</w>
interpre t</w>
infring ing</w>
h is/her</w>
genu ine</w>
fun ders</w>
es peci
du res</w>
distin ct</w>
detail ing</w>
deb entures</w>
con clusive</w>
charac ter
ber g</w>
achiev ed</w>
________________________________ ______</w>
Tra ining</w>
Stre et
R ei
O FFI
OFFI CE</w>
Non- Material</w>
Non- Circumvention</w>
Negoti ations</w>
M ot
Licen ses</w>
Identi fication</w>
Grou pe</w>
EX PRE
Copy right</w>
Carol yn</w>
B. V</w>
3 i</w>
11. 1In</w>
- related</w>
т о</w>
по л
е с
г ла
ü n
ün ch
wi der</w>
w eigh
weigh ted</w>
un successful</w>
un necessary</w>
un als</w>
transf erees</w>
tit u
targ ets</w>
tan der</w>
ta ir</w>
sub sections</w>
su blic
star ted</w>
sp e
simp le</w>
ro l
revis ed</w>
resign ing</w>
rec itals</w>
re Co</w>
pro ves</w>
pre amble</w>
pr ices</w>
pon ed</w>
pd f</w>
mis statements</w>
mand ate</w>
man n</w>
machin e-
log os</w>
insp ect</w>
in ed</w>
il itation</w>
h ot
h ei
g raph
form ally</w>
fam ili
exper i
er v
eg asu
egasu s</w>
direc tive</w>
deli vers</w>
custo dian</w>
counter parties</w>
conn ections</w>
con vic
com ment</w>
clear ance</w>
ci alidad</w>
chron ological</w>
chan ging</w>
ch ting</w>
ce ding</w>
call s</w>
bur y</w>
attemp ts</w>
as i</w>
are r</w>
ai m</w>
advis able</w>
advis ability</w>
ad mission</w>
acc eler
a vi
a RE</w>
Y ear
U berall</w>
Sti chting</w>
San tander</w>
S am
Reg ar
R M
PUR CH
P egasus</w>
P al
Organ isation</w>
Nov aRE</w>
No w</w>
Materi ale</w>
M ünch
Lic ence</w>
LIC ENS
L DD</w>
Invest ee</w>
IR ISA</w>
I r
He ad
H igh
H PE</w>
Fi ve</w>
En d</w>
EXCEP TIONS</w>
EN TS</w>
DTT L</w>
DOCU MENT</w>
D C</w>
D BAY</w>
Commit ment
CONT ACT</w>
CONFI RM
CH IRISA</w>
CF R</w>
C IA</w>
C ASE</w>
Borrow ings</w>
Bo oks</w>
Ar rows</w>
Announ cement</w>
An al
Al tair</w>
Ad herence</w>
Acqui reCo</w>
Ac ceding</w>
8 If</w>
4. 1The</w>
30. 2</w>
2 1.
15. 2Except</w>
14. 1
11. 5
10. 4</w>
0 4
................................................ ..</w>
wor th</w>
vi i</w>
use ful</w>
un ity</w>
trans parent</w>
trans lated</w>
techno logical</w>
sur render</w>
substit ution</w>
subs isting</w>
sto len</w>
sh eets</w>
sec ondary</w>
ru g</w>
ris h</w>
proj ected</w>
preser vation</w>
p un
occu pied</w>
occas ion</w>
machine- readable</w>
l ements</w>
intermedi ary</w>
int el
in ability</w>
il led</w>
fix es</w>
fin anc
fail ures</w>
f ford</w>
especi ally</w>
easi ly</w>
dist ress</w>
deri ve</w>
deliver able</w>
d ent</w>
comp ut
c riteria</w>
back ed</w>
as sure</w>
ar rears</w>
am ending</w>
alleg ation</w>
affor ded</w>
aff ects</w>
advan tages</w>
adjus tments</w>
addres sees</w>
acti v
a -
________ _______</w>
Thir d-
Syndic ate</w>
S ANT
SANT AN
SANTAN DER</w>
R ome</w>
Prohib ited</w>
Proce dures</w>
Pro duc
Pla stic</w>
Parti es
PERS ONAL</w>
Organ ization</w>
LL P
In corporation</w>
I rish</w>
G ES</w>
Fac ebook</w>
FU LL</w>
F I</w>
EX CLU
Docu ment
Consult ants</w>
Bl an
B T</w>
18. 1</w>
10 Each</w>
‎ 3.2</w>
| T
|T |
|T| F</w>
z ed</w>
y nam
whol ly-
wholly- owned</w>
v endors</w>
tribut ors</w>
transf eree</w>
trans mit
tran et</w>
tr usion</w>
tr ial</w>
tim esh
timesh eets</w>
t g
t ee
st on</w>
sol utions</w>
ser v
se en</w>
se arch
search es</w>
s .
reimbur sed</w>
rech t</w>
provisi onal</w>
on est</w>
omb ia</w>
oblig es</w>
o la
no tre</w>
n ical</w>
mo vement</w>
mand ated</w>
loc ate</w>
lik e
l arg
l ar
ing /
ine a</w>
in tranet</w>
in tra-Group</w>
guaran tee
g rou
g eria</w>
form ity</w>
famili ar</w>
expla ins</w>
expi ring</w>
experi enced</w>
es ores</w>
encumb rance</w>
en vis
en ve
design ation</w>
def erred</w>
def ect</w>
d oc
d epend
counter -
conve y</w>
cont acting</w>
con sumption</w>
compe ting</w>
barg ain</w>
atta mento</w>
associ ate</w>
aran ac</w>
appen dices</w>
an te</w>
alit é</w>
al idity</w>
ail and</w>
addi tions</w>
a zione</w>
a de</w>
W GP</w>
W -8
V ir
V en
Th ailand</w>
Tech nical</w>
St B</w>
Sp ot</w>
Sand ler</w>
SO CI
SC C</w>
S oci
S aranac</w>
Ro y
Ro om</w>
Reti ring</w>
Rec itals</w>
Re f</w>
RE CE
Par ty
PAR TI
P AN
Ox ford</w>
O man</w>
MANDAT ORY</w>
LLC 2100</w>
KF L</w>
Ju n</w>
Joh n</w>
Inv alidity</w>
Inv alid</w>
IC G</w>
H un
H ouse
Gu inea</w>
For dg
Follow s</w>
FAC ILITIES</w>
Exclusi ons</w>
E th
Develop er</w>
De al</w>
DE LI
D isclosures</w>
Col ombia</w>
C |T|F</w>
C hi
Bah rain</w>
B ou
Al so</w>
Al geria</w>
AR ANT
AMEND MENTS</w>
8 0</w>
7 If</w>
533,333,333.3 4</w>
4800 18
4500 5</w>
30. 5</w>
16 0</w>
15. 1</w>
15 Without</w>
13. 1
12 Each</w>
11. 8If</w>
11. 5</w>
11. 4The</w>
11. 3
11. 11</w>
11. 00</w>
1,333,333,333.3 3</w>
00 am</w>
/ Term</w>
- time</w>
z bank</w>
sp a
process ors</w>
p ackage</w>
oti onal</w>
min ority</w>
mechan ism</w>
law suit</w>
inves ted</w>
in put</w>
impli ed
implied ly</w>
identi cal</w>
g y</w>
fif ty</w>
expl oring</w>
es cal
ensu red</w>
eff ecting</w>
discrep ancy</w>
dec ided</w>
de x</w>
counter party</w>
counter claims</w>
convic ted</w>
can didate</w>
c ryptog
bu yers</w>
bri ef</w>
ali date</w>
SH K</w>
Respon sibility</w>
RESPEC T</w>
Ph ysical</w>
Oth erwise</w>
M ay
K oh
INSI DE</w>
HO FI</w>
Foun ders</w>
Ex cep
ENTI TY</w>
D el
Company/ Group</w>
Commer zbank</w>
CM SHK</w>
C lients</w>
B est</w>
B U
Al len</w>
Ad vice</w>
6. 3
201 9
11. 9If</w>
11. 13
0 8
披露 方
信 息
………………………………………… …………</w>
ы х</w>
о м
настоя ще
и и</w>
ß e</w>
wr it
w ards</w>
ur ora</w>
un fair</w>
trus tees</w>
tra ße</w>
supervis e</w>
sub contracting</w>
six th
sal ary</w>
revo ked</w>
ref used</w>
rec alling</w>
re f</w>
r ate
rate ably</w>
procu red</w>
pre- emption</w>
possess ed</w>
particip ants</w>
p referred</w>
p refer</w>
os ton</w>
os ites</w>
on y</w>
non- con
no ot
no logies</w>
negl ect</w>
ne arly</w>
migr ation</w>
mark et
mar x</w>
mani f
man s</w>
ma iling</w>
m om
liquid ator</w>
la g</w>
l er-
l end</w>
l '
j ury</w>
issu ing</w>
inter vals</w>
ing ton</w>
ing s
in capacity</w>
impl ements</w>
ic o</w>
har den
harden ing</w>
ext ends</w>
expi red</w>
ex hib
enti fic</w>
eni us</w>
end a</w>
el ement</w>
ei ving</w>
ear nings</w>
duc ation</w>
doc tr
dimin ution</w>
di visions</w>
despat ch</w>
del le</w>
correc tness</w>
col or</w>
ci entific</w>
cent ral</w>
c ount</w>
aw ards</w>
author isations</w>
ate /
allo tted</w>
allo t</w>
ad o</w>
ad mis
acc ession</w>
abs tracts</w>
ab erer</w>
________ _____</w>
________ __</w>
Wai vable</w>
W aberer</w>
Vit ol</w>
Vic e-
VE N</w>
V A
Un fair</w>
UN CE
UNCE MENTS</w>
Tech nologies</w>
TH OR
SUR ANCE</w>
S ocial</w>
S hi
S B</w>
Roy al</w>
Ro le</w>
RESERV ATION</w>
RELE ASE</w>
Qu otations</w>
Publi city</w>
Por tu
PL G</w>
PE G</w>
Over y</w>
ON D
No on</w>
NO UNCEMENTS</w>
N ations</w>
Mark s</w>
MAR KE
J PEG</w>
J .
IS E</w>
INVEST OR</w>
INT ELL
INTELL EC
INTELLEC TUAL</w>
H ours</w>
G enius</w>
E uro</w>
D ER
Cor rupt</w>
Consequ ential</w>
Cons truction</w>
Comp osites</w>
Cli ente</w>
Check marx</w>
Ch r
Can ada</w>
CT V</w>
C u
C CTV</w>
Barcla y</w>
B oston</w>
B order</w>
B RI
B PLG</w>
B B
Ad dendum</w>
AN NOUNCEMENTS</w>
ACKNOWLEDG MENTS</w>
A ven
A urora</w>
A ston</w>
6 7</w>
5 00</w>
4800 16
4. 4
4 6</w>
3. 7</w>
3 9</w>
3 9
25. 12</w>
198 6</w>
13. 3
13. 2
11.5 Subject</w>
11. 7If</w>
11. 15Without</w>
11. 14
11. 12Each</w>
10 3</w>
y n
wor kers</w>
vis ory</w>
ul a</w>
trans port</w>
t ely</w>
stock holders</w>
res truc
replac ing</w>
re ached</w>
prom otional</w>
plac ement</w>
machin ery</w>
loc ked</w>
law fulness</w>
intro duc
ic le</w>
g aps</w>
for ty-
financi er</w>
fil ings</w>
environ ments</w>
domic iled</w>
der og
comple tely</w>
capit alisation</w>
by- pass</w>
ation ally</w>
ari a</w>
archi ved</w>
alleg ing</w>
accru ing</w>
Trib unal</w>
Th ey</w>
T EN
Super visory</w>
Sign ed
Pol ish</w>
Plan ning</w>
N et
H atch</w>
Draw ing</w>
Document ation</w>
DISCLOS ING</w>
Cli fford</w>
AN NE
5 /
14. 3</w>
14. 3
11.2 Both</w>
11. 6The</w>
11. 10Each</w>
0 6</w>
法 律
招 证
…………………… ……</w>
‎ 10.1</w>
об яз
ны х</w>
но го</w>
з а
z ars</w>
where of</w>
w an
viol ated</w>
vin ity</w>
vi dence</w>
ve ter
util ity</w>
un solicited</w>
u t</w>
transmit tal</w>
trans lations</w>
tiz ation</w>
ti eng
sus pension</w>
su me</w>
struc k</w>
sti pulation</w>
stand still</w>
sp ot</w>
sk a</w>
si ti
si asi</w>
sen siti
self- assessed</w>
sec on
sc ru
s cientific</w>
ron icle</w>
ri power</w>
red emption</w>
recas as</w>
rec al
r atings</w>
qu asi-
pro- recipient</w>
pro poses</w>
pos t
p oth
or um</w>
ome thing</w>
oblig ing</w>
obj ective</w>
non -</w>
mechan is
mechanis ms</w>
m o</w>
lap top</w>
k t</w>
k es</w>
j ections</w>
invalid ating</w>
interrog atory</w>
ind ly</w>
in der</w>
i b
hy poth
guarantee ing</w>
gu ard</w>
govern ance</w>
g e-
feasi bility</w>
fac ilitation</w>
f are</w>
expan ded</w>
excer pts</w>
ex posed</w>
es ar</w>
enve lope</w>
enjoin ed</w>
eng el
engel er</w>
embodi ed</w>
doctr ine</w>
divi ded</w>
dis claims</w>
di ver
def ences</w>
def ects</w>
d /
competit or</w>
cili ation</w>
ci ón</w>
ch ester</w>
be tter</w>
audi ting</w>
att ack
attack er</w>
at recasas</w>
ass er
anony me</w>
ani tization</w>
acqui rers</w>
accoun ted</w>
abs tain</w>
a p</w>
Y ORK</w>
Vice- President</w>
UR G</w>
U K
Tri ang
Tax ation</w>
Sy d
Sum Up</w>
St ef
Sol vinity</w>
Sh ort
SI ONS</w>
SB RL</w>
S omething</w>
S eg
RO W
REQUIRE MENTS</w>
Practi cal</w>
Pol len</w>
Pe ter</w>
Pa ul</w>
PR INC
PRINC IP
Oth ers</w>
On t
OT B</w>
OR E</w>
Non -</w>
NO TES</w>
Mu eller</w>
Ma zars</w>
Ma ke</w>
MDL 1</w>
M ell
M as
L ES</w>
L -
Kirk land</w>
Kin d</w>
J urisdictions</w>
Instit ution</w>
In jections</w>
In fr
I WB</w>
I /
H ere
H engeler</w>
H K
Gre en</w>
GU ARANT
GE MENT</w>
G Y</w>
Fordg ate
Facili ties
Ever core</w>
EXPRE SS</w>
E vidence</w>
E ST
Dis tributions</w>
DIS PU
DAT ED</w>
D er
Cu atrecasas</w>
Con cer
Comp elled</w>
Cl ark</w>
Chi ef</w>
Cha irman</w>
Ch ronicle</w>
Ca esar</w>
C overage</w>
C REDIT</w>
C DPA</w>
Ber k
B ain</w>
B AC
Ak tieng
Ag ripower</w>
AU THOR
A on</w>
9. 5
8 1</w>
7 5</w>
7 4</w>
7 3</w>
60 -
5. 00</w>
5 4</w>
5 2nd</w>
5 2</w>
5 1</w>
42. 8</w>
4. 6
4. 5
4 2.3</w>
201 1</w>
2 1A</w>
199 5</w>
19. 5</w>
17 6</w>
15. 3The</w>
13. 4
11.3 Each</w>
11. 14</w>
00 0
0 4.
0 2</w>
/ Cash/DCM</w>
- 2017</w>
void able</w>
utilis ing</w>
uncondi tional</w>
ti al</w>
ten der</w>
su rety</w>
specim en</w>
rest ated</w>
reput ational</w>
remo vable</w>
reco vered</w>
r. l
pun itive</w>
p MC</w>
ord ered</w>
manag er
manager ial</w>
li ens</w>
k ruptcy</w>
is tics</w>
gn itive</w>
g pMC</w>
fund am
forty- five</w>
formu las</w>
for war
facilit ating</w>
expun ged</w>
ex traordinary</w>
ev ed</w>
engag ements</w>
econ om
di li
defin e</w>
def ective</w>
de par
cri pts</w>
coun ting</w>
con cept</w>
comp elling</w>
click- through</w>
cho os
c es
au ght</w>
as ion</w>
ai med</w>
a sures</w>
Tw o</w>
Transf erees</w>
Th ose</w>
TI ON
S coring</w>
Registr y</w>
Rec ord</w>
Quar terly</w>
Produc ts</w>
Pri ority</w>
PRO CE
Obj ective</w>
Me asures</w>
Koh l
Instru ments</w>
INDEMNI FICATION</w>
I DP</w>
F air</w>
F SA</w>
Emir ate</w>
Del ta</w>
DE BT</w>
Conn aught</w>
Co gnitive</w>
Ch ance</w>
CV SS</w>
CP A</w>
CONTR AC
Ban kruptcy</w>
Acqui rer</w>
6 23</w>
5 3</w>
3. 1.
10. 2
10 1</w>
10 /
.com /
招证 香港
我们 的
………… ……</w>
ш ени
н о</w>
информаци и</w>
и я</w>
ен т
Письм а</w>
y .com</w>
x y</w>
ven noot
v otes</w>
v entions</w>
under writ
un employment</w>
trib unals</w>
tr attamento</w>
tern ally</w>
temp late</w>
take over</w>
t- bearing</w>
t ently</w>
sy m
subs cribed</w>
stre et
street .com</w>
speci alist</w>
sol ved</w>
so red</w>
sixth street.com</w>
sec ond
sc anned</w>
s coring</w>
ré sent
ru ed</w>
reser vation</w>
releas ing</w>
reg ain</w>
recogn ises</w>
re less</w>
r un
qual siasi</w>
prom ote</w>
prohib its</w>
par i</w>
pa yee</w>
ot ec</w>
organ ise</w>
on sored</w>
off ences</w>
new ly</w>
n ous</w>
mer g
mat ur
manufac turing</w>
mal icious</w>
la id</w>
inv alidate</w>
interes t-bearing</w>
in creas
in completeness</w>
in c
im par
id a</w>
ic k</w>
i ón</w>
g li
fre ely</w>
franch ise</w>
for d
fin e</w>
fif th</w>
f low
execu tives</w>
ex ternally</w>
ex ac
exac tly</w>
eset z</w>
er ts</w>
er /
enti ve</w>
ene tration</w>
ec eiving</w>
displa y</w>
disc ount</w>
dis covers</w>
di agr
diagr ams</w>
der /
del la</w>
dat i</w>
consider able</w>
consequ ent</w>
confi g
conf erence</w>
cir cular</w>
ch ild
carri ers</w>
c ure</w>
c li
bon us</w>
be ars</w>
bas ic</w>
authenti cation</w>
ate ur</w>
at tribute</w>
arg otec</w>
app resent
an ger</w>
an e</w>
am ente</w>
allow ance</w>
all ed</w>
al th
ac tu
ab ile</w>
a ire</w>
________ ___</w>
Year s</w>
WH IT
WHIT E</w>
W ill</w>
W aste</w>
W ISE</w>
V e
V II</w>
Triang le</w>
Tr avel</w>
Str ateg
Si milarly</w>
Short fall</w>
SH ALL</w>
S ports</w>
S il
S TI
Rep résent
Rec ord
Re tur
R appresent
R O</w>
Pro mo
Pers on
Partner ships</w>
PARTN ER</w>
P C</w>
P /
Oper ator</w>
Oper ación</w>
Ont ario</w>
OND ON</w>
O il</w>
O UT</w>
O F
Mor gan</w>
Mil ano</w>
Man ual</w>
Lan guage</w>
LIC ABLE</w>
L. com</w>
L and</w>
L ONDON</w>
L AND</w>
J OIN
Interpre t
In su
INDEMN ITY</w>
Head ings</w>
He ad</w>
HOLD INGS</w>
H L.com</w>
G enting</w>
G E</w>
G A
Fi xed</w>
Exper ts</w>
Enter tainment</w>
ERE N
E L
Di vul
DIS C
D EN
D CG</w>
Cor p
Con vention</w>
Con tent</w>
Char t</w>
COR POR
CONT ENTS</w>
C argotec</w>
C all</w>
C .</w>
Afr ican</w>
Acknowledg ment</w>
Acc rued</w>
Ac ti
AR RAN
APP LICABLE</w>
AC F</w>
A verage</w>
9. 00am</w>
7.2 As</w>
7.1 Unless</w>
5.2 Unless</w>
5.1 Wallbrook</w>
4.4 If</w>
4.3 For</w>
4.2 Invoices</w>
33 68</w>
30 9
3.1 You</w>
201 8/
2.2 These</w>
2.1 These</w>
2. 1.2</w>
2 1.2</w>
2 1.1</w>
14.2 Nothing</w>
14.1 Deliverables</w>
14. Limitation</w>
14 1</w>
13.3 On</w>
13.2 Without</w>
13.1 You</w>
13. Cancellation</w>
12. Legal</w>
12. 5</w>
12. 2
10. 1We</w>
10 6</w>
1 12</w>
0 3.
. 10</w>
+ 1</w>
其 他
ys ically</w>
x Partners</w>
vir uses</w>
ty re</w>
terr or
suspec ting</w>
super vision</w>
speci fication</w>
safeguar ding</w>
rit us</w>
proced ural</w>
ph ysically</w>
or der
op tical</w>
occup y</w>
noti fications</w>
licens or</w>
li eu</w>
levi es</w>
indic ative</w>
im m
hand le</w>
fundam ental</w>
form ula</w>
exec ut
ener gy</w>
en ure</w>
duplic ates</w>
dimin ish</w>
deri ving</w>
defin ing</w>
convers ations</w>
consum er</w>
comp iled</w>
commer ce</w>
bri d</w>
b ir
avo ided</w>
appro aches</w>
analys ing</w>
ad s</w>
a king</w>
________ _</w>
TP IM</w>
R J</w>
Prohib ition</w>
Noti ces
Mot ors
Ltd .
Len der
LEG AL</w>
Inter ritus</w>
Indemni fication</w>
IN DI
F ree</w>
DU C
D e</w>
Cal le</w>
Blan tyre</w>
Bas ed</w>
Ali xPartners</w>
AR D</w>
7.3 All</w>
2.3 We</w>
系 人
同 意
………. ……….
‎ 28.
‎ 1</w>
ч то</w>
ру г
пр ед
о с
о д
но ст
д руг
в а
атель ств
é e</w>
z a
wee ks</w>
vol ume</w>
var anger</w>
v es
util ise</w>
un i
ty /
ts an
tsan w
treat y</w>
transfer or</w>
tion ary</w>
tim esc
suc ce
sublic ense</w>
sub division</w>
sp onsored</w>
so l</w>
shor tened</w>
serv ants</w>
sc en
sav ed</w>
s pre
rit to</w>
rin ts</w>
rev olving</w>
reti rement</w>
respon s
recogn ition</w>
re organization</w>
raph y</w>
pro motion</w>
pre dec
predec ess
pr u
omm unications</w>
ol l
ocu s</w>
occup ational</w>
oc rates</w>
oblig or</w>
objecti vity</w>
neg ative</w>
ment e</w>
mem o</w>
ma tions</w>
ler- Processor</w>
leas ehold</w>
le verage</w>
la y
la ke</w>
judg ments</w>
itt le</w>
intermedi ate</w>
inter -
inadver tently</w>
in tra-
illa ge</w>
h a</w>
gan te</w>
ga p</w>
g al</w>
four teen</w>
fiel ds</w>
f oun
f A</w>
explic it</w>
exhib its</w>
essi ons</w>
ent r
en man</w>
ell es</w>
dis covered</w>
dis claim</w>
de vi
counter signed</w>
corpor ations</w>
conven ed</w>
co p</w>
chec k
ch in</w>
ca sh
ca p</w>
br and</w>
b ad</w>
az ardous</w>
att en</w>
att ach</w>
ass isted</w>
ann ex
air mail</w>
addi tionally</w>
Y C</w>
XX XXXXX</w>
W -
US CH</w>
U. S</w>
U SER
USER -B
USER-B USCH</w>
U RES</w>
U -3</w>
Tor que</w>
There after</w>
TS U
THER WISE</w>
THE ON</w>
T yp
T ou
Syd varanger</w>
Success ors</w>
Speci alist</w>
Sig run</w>
SPECI FI
SO LU
SEN I
SCO PE</w>
S et
S anctioned</w>
S AN
Ros enman</w>
Reser vations</w>
Res traint</w>
Rech tsanw
Reas on</w>
Rappresent anti</w>
RE N
Purchas ing</w>
Po or</w>
Par ti</w>
PAN THEON</w>
P ty</w>
P aper</w>
P O
O THERWISE</w>
Non- payment</w>
N om
N ex
N SP</w>
Mu chin</w>
MI TSU
M y
M G
MG M</w>
Lo g
Lo ans
LL I
LIMIT ATION</w>
LIG ENCE</w>
L. L.
L ock
L a</w>
L TING</w>
L A</w>
K atten</w>
K .</w>
Inf r</w>
In c
Im per
IS ED</w>
IN SURANCE</w>
IN GEMENT</w>
IN FR
INFR INGEMENT</w>
I AC</w>
Hist ory</w>
HOL DING</w>
HK IAC</w>
HE USER-BUSCH</w>
H azardous</w>
Fordgate Infr</w>
FR S</w>
FAC ILITY</w>
F ar
Ex tract</w>
EN FOR
Dub lin</w>
Divul gante</w>
Dis posing</w>
Def ence</w>
DOCU MENTS</w>
Cre ditors</w>
Control ler-Processor</w>
Comp eting</w>
Commission er</w>
Certi ficates</w>
CU LA
CONSU LTING</w>
CONSEQU ENCES</w>
CO P
C eder
C ast
C alling</w>
C RA
Bo fA</w>
BE V</w>
Austr ia</w>
Ac ts</w>
AUTHOR ISED</w>
AR IS
AN HEUSER-BUSCH</w>
A UR
A -
9 1</w>
6.3 You</w>
59 7</w>
55 6</w>
5. 6</w>
4.5 Invoices</w>
4. 7
4 5
4 2.4</w>
3.2 If</w>
3. The</w>
2018/ 597</w>
200 7</w>
200 1</w>
2 50</w>
2 3.1</w>
16 Without</w>
15. 1Each</w>
14.3 Subject</w>
13 8</w>
10. 2We</w>
10 7</w>
06. 11</w>
00 1</w>
0 9
- owned</w>
- out</w>
- level</w>
- form</w>
………… …………</w>
with hol
u c
tre asury</w>
tit les</w>
t ours</w>
str i
st yle</w>
sk illed</w>
row th</w>
regul ate</w>
recti fication</w>
r.l .</w>
prof ession</w>
prin ted</w>
pre sumed</w>
pla in</w>
p reference</w>
or s/
offi cials</w>
mode ling</w>
la bour</w>
la be
informa tional</w>
incorpor ates</w>
in eering</w>
ha z
h en</w>
f requ
f al
ex empt</w>
down lo
dis h</w>
dec iding</w>
d '
cre dits</w>
compon ent</w>
co operating</w>
circul ated</w>
c ards</w>
bu ilding</w>
behavi or</w>
at eness</w>
approxi mate</w>
ad mits</w>
Wh ilst</w>
W HE
WHE THER</w>
Vict oria</w>
TU RES</w>
TI T
Su n</w>
Si mb
SPECI AL</w>
S.p. A</w>
Rem uneration</w>
Pe ople</w>
Kohl berg</w>
Int entionally</w>
Inform ing</w>
Gu idelines</w>
Govern ment</w>
G ri
FA O</w>
Eng ineering</w>
Dis tribution</w>
Dis claimer</w>
Design s</w>
D estro
D ep
C IR
BU Y
B O
9.4 Neither</w>
9.3 Confidential</w>
9.2 Each</w>
6. 2We</w>
其各自 的代表
…………………… …</w>
ра з
по д
ответствую ще
н а</w>
лю ч
к люч
С о
é r
ys is</w>
y/ ies</w>
w ide
wide ly</w>
vo ic
voic email</w>
v em
vem entioned</w>
v ac
un utilised</w>
tru th</w>
tribu ted</w>
tra g</w>
tin at
tinat ario</w>
ti an</w>
th es
t G</w>
sur ve
sur plus</w>
suffici ently</w>
struc tured</w>
str ing
some times</w>
sol vent</w>
sha rehol
self- reporting</w>
se em</w>
scen ario</w>
s ex
sex ual</w>
s -
ross- Border</w>
ro ll</w>
referen cing</w>
record ings</w>
rec la
real is
rav is</w>
ra Nova</w>
r itten</w>
qu orum</w>
qu ist</w>
purchas ed</w>
prospec tus</w>
prom ised</w>
pr é
port able</w>
photograp hs</w>
pat ent
par te</w>
p referable</w>
p re</w>
or ough</w>
on- going</w>
oh mat
ohmat su</w>
off line</w>
off line/
offline/ local</w>
o .
nu mer
ne a
nea rest</w>
nar ound</w>
n a</w>
matur ity</w>
materi ality</w>
manif est</w>
ma ils</w>
licens able</w>
l ity</w>
l ary</w>
invol untary</w>
invalid ated</w>
inter fac
informa zioni</w>
in heren
ic ing</w>
i x</w>
h ome</w>
h inder</w>
graph ics</w>
gr ate
grate ful</w>
g uar
fe atures</w>
expl ore</w>
examin ations</w>
equ ally</w>
envis ages</w>
emb arg
ell a</w>
el ements</w>
ei t</w>
ei l</w>
ed -
e lap
displa ys</w>
discoun ts</w>
defici ent</w>
dama ged</w>
da d</w>
continu ance</w>
cons ecu
conf ers</w>
con ce
clear ances</w>
clari fication</w>
claim ant</w>
cl er
capac ities</w>
bor row</w>
ba o</w>
b ill
author ises</w>
an t
am ic
af ford</w>
abo vementioned</w>
________________ ____
W ritten</w>
W i
V ARI
Un ter
US SIONS</w>
Tou che</w>
Tit le
Ter raNova</w>
TAR GE
TARGE T</w>
T ohmatsu</w>
T OR
Suppl ement</w>
Strateg y</w>
Stef an</w>
Sign atures</w>
Sign at
SIGN AT
S. P.
Rob erts</w>
Rob ert</w>
Représent ants</w>
RECE IV
R TO</w>
Portu gal</w>
Par k
PL Y</w>
PER A
P ay</w>
P SG</w>
OW N
OWN ERSHIP</w>
Nor th</w>
Nom ura</w>
NON DISCLOSURE</w>
Mon day</w>
Mo di
Mi tigation</w>
M CI</w>
Lin k
Leg islative</w>
LU X
L CIA</w>
K ravis</w>
J ones</w>
Invo icing</w>
Inter bank</w>
Infr astructure</w>
Imper ial</w>
IG A</w>
I C</w>
House Grand</w>
HA VE</w>
GA IN</w>
Fri day</w>
Fac ilit
F amily</w>
Er ber</w>
En ding</w>
EX P
ER I
ENFOR CE
ENFORCE MENT</w>
EC H
E N</w>
E L</w>
Den mark</w>
DISC USSIONS</w>
DI TIONAL</w>
DE L
D ERS</w>
Corp .</w>
Cor rec
Confiden cialidad</w>
Comp ens
Clear lake</w>
Ceder quist</w>
CONTINU ING</w>
C ross-Border</w>
C R</w>
C ITY</w>
C Ds</w>
Bec ause</w>
B en</w>
B URG</w>
Aven ga</w>
At t</w>
Anal ysis</w>
Ak tG</w>
Ad v
ARRAN G
AN D
AD DITIONAL</w>
AC QU
AC CUR
A DE
99 9</w>
8 6</w>
7 6</w>
6.1 All</w>
6 9
5 th</w>
4.6 While</w>
3 8.
3 4
23 rd</w>
2/ 3</w>
2 1.3</w>
199 2</w>
15 4</w>
13.4 Any</w>
12 8</w>
12 3</w>
11.14 Each</w>
11.13 Where</w>
11. 16Without</w>
1. The</w>
0 4</w>
................................................ .......</w>
z ech</w>
wee k</w>
w ord
un affiliated</w>
tri eve</w>
trans form</w>
trad es</w>
tion na
tionna ire</w>
terror ism</w>
some one</w>
s anc
sanc tion</w>
ro j
restruc turing</w>
re trieve</w>
r ul
prot oc
protoc ols</w>
pro file</w>
pp ing</w>
port al</w>
pi ec
particip ates</w>
ow s</w>
op y</w>
o -
non- payment</w>
n y</w>
n .</w>
irre triev
intel ligible</w>
in correct</w>
hy brid</w>
exemp tions</w>
ev asion</w>
er se</w>
endeav or</w>
dis ease</w>
dis continue</w>
cri mes</w>
coun sels</w>
compos ed</w>
character istics</w>
bro kers</w>
back ups</w>
appropri ateness</w>
all y-
VEN TURES</w>
U P
S /
Nor dian</w>
Non- Solic
Motors port</w>
M J</w>
JUR Y</w>
H R
G SA</w>
Destro y</w>
Davi d</w>
CON N
C zech</w>
As surance</w>
Al li
Addres s
Ac tions</w>
ANNE X</w>
9. 1Each</w>
8. 2
7 0</w>
2 7.
1 st</w>
........................................ .....</w>
的 任何
有 限
—— ——
‎ 30</w>
та ко
о й</w>
ны е</w>
н е
л я
б уд
ат ь</w>
Конфиденциаль ной</w>
z ampiga</w>
y- man</w>
y List</w>
wan ted</w>
vent u
v zampiga</w>
un wanted</w>
un certainty</w>
ubli cation</w>
u k</w>
typ ically</w>
tion ing</w>
time table</w>
threaten s</w>
th ly</w>
ten ancy</w>
t ests</w>
t ability</w>
susp ended</w>
su s</w>
su o
suo i</w>
string ent</w>
st one</w>
simp ly</w>
se al</w>
revoc ation</w>
res h
referen tial</w>
ree hold</w>
recogn ise</w>
re sume</w>
r ated</w>
pru dence</w>
propri ation</w>
program med</w>
pro xy</w>
pri or
prior ities</w>
pri me</w>
preser ving</w>
prejudic ed</w>
prec eded</w>
pol l
pl ate</w>
p referential</w>
p end
our ly</w>
ot t
on site</w>
off er
offer ings</w>
off ense</w>
oc ks</w>
ob vi
non- cash</w>
non contractual</w>
no s</w>
n ic
min us</w>
mechan ics</w>
mea sure</w>
me tric</w>
m argin</w>
lo ver</w>
line/ English</w>
le x</w>
le t
lat ers</w>
la ying</w>
k indly</w>
joint -
intra- group</w>
ins pec
ins ist</w>
in si
impli es</w>
im self</w>
im port</w>
im ing</w>
il er
iler plate</w>
ic z
hel p
he dge</w>
h imself</w>
guaran tors</w>
grou ps</w>
gli a</w>
form a</w>
fin ding</w>
f ri
f lu
exten sive</w>
expla in</w>
expec tation</w>
excep tional</w>
ev a</w>
eri um</w>
er a</w>
elap sed</w>
e li
discrimin ate</w>
dis regarded</w>
differen ces</w>
di ation</w>
descri p
der n</w>
dem erger</w>
defend ant</w>
deduc tible</w>
d as</w>
d alla</w>
cu al
cual qui
consult ations</w>
conn ect</w>
confi den
cash flow</w>
capit alized</w>
c tic</w>
b est
aw a
ati ons
ar ose</w>
appoint or</w>
applic ability</w>
anti- virus</w>
and y</w>
amend s</w>
alth care</w>
admis sibility</w>
ad option</w>
ad able</w>
a zioni</w>
a b</w>
________________________ ______
__ _
Y O
Vict ory</w>
Val idity</w>
Un used</w>
Tran sac
Th erium</w>
Ten ant</w>
TI M
T iming</w>
T ad
T AS</w>
T AL</w>
Super vision</w>
So lar</w>
Signat ure
Sh ort</w>
SEVER ANCE</w>
SEVER ABILITY</w>
SELL ER</w>
SAN PA
SANPA OL
SANPAOL O</w>
S.P. A</w>
S ocrates</w>
Rep sol</w>
Record sure</w>
REQU E
RECEIV ING</w>
Qu ality</w>
Publi cation</w>
Promo ters</w>
Pro fit</w>
Pre- Approved</w>
PURCH ASE</w>
PRINCIP AL</w>
PM C</w>
P ic
Organ ised</w>
Offi cials</w>
Nex think</w>
Negoti ating</w>
NOTI CE</w>
N ationality</w>
Mell on</w>
Max well</w>
M oral</w>
M id
M echan
M ail</w>
M HL</w>
Lo an
Link laters</w>
Limit ed
Liber is</w>
Le as
Land lord</w>
La undering</w>
K no
K en
JOIN DER</w>
IT K</w>
INVEST MENT</w>
INT E
INTE SA</w>
IN BEV</w>
I SP</w>
I FRS</w>
HE AL
HEAL TH</w>
H H</w>
Gre yList</w>
Gra ham</w>
Ge or
GB P</w>
G od</w>
G al
FOR TIS</w>
F ul
F X</w>
Ex cise</w>
EN DI
ENDI X</w>
E VEN</w>
Du ties</w>
Des tinatario</w>
Defaul ter</w>
D S</w>
D RA
D ENT</w>
Counter par
Conver ge-
Cons ortium</w>
Cons ents</w>
Confidenti alité</w>
Con ve
Compens ation</w>
CS M</w>
CONTR ACT</w>
CO STS</w>
C andy</w>
Bou lev
Berk ana</w>
Bec k</w>
BUY ER</w>
BAC K</w>
B anc
B UT</w>
Attor ney</w>
Assign ments</w>
Assess ment</w>
Ar ctic</w>
Ap tic</w>
Anti- Bribery</w>
An d
Al low
Ag ainst</w>
Administr ation</w>
AU ST
AS ER</w>
APP ENDIX</w>
ADE QU
A PMC</w>
9 :30</w>
9 4</w>
8. 3
8. 1We</w>
7. 10</w>
7 9</w>
66 2/3</w>
6. 4You</w>
5 4
480018 999</w>
4.7 Unless</w>
30. 7</w>
30. 3</w>
30. 1</w>
3 1-
26. 5</w>
200 4/
20 3</w>
2 6.2</w>
2 5.2</w>
2 4.2</w>
15 0</w>
15 00
1500 Dallas</w>
13. 4</w>
12. 7</w>
11 :00</w>
1. 1
1 This</w>
0 8.
0 2.
. The</w>
. 4</w>
. 3</w>
- off</w>
‎ 12.2</w>
ynam ic</w>
ye ar
we alth</w>
ur pose</w>
t ested</w>
t ant</w>
st opp
self- insurance</w>
s pi
spi ri
spiri t</w>
routin es</w>
roj an</w>
rem ote</w>
reg ion</w>
purpor ting</w>
provisi on
prec ise</w>
perio dic</w>
p ic
non- financial</w>
neg ie</w>
mon wealth</w>
m ention</w>
liquid ated</w>
leg ends</w>
labe l</w>
j urisdic
is ts</w>
instal lation</w>
in formal</w>
im plic
i mal</w>
ha us
h or
g as</w>
ex haus
e x</w>
de als</w>
d rug</w>
counter sign</w>
cons truc
conduc ts</w>
clu ding</w>
cl ean</w>
cas t</w>
can v
c enter</w>
adap t</w>
ad here
________________________________ ________________________________
Sav ills</w>
SECUR I
SECURI TIES</w>
SAC P</w>
S F
Plac e
P K
M ER
KF G
KFG K</w>
In dex</w>
Im medi
INT ERE
G rup
E ar
D ynamic</w>
Com monwealth</w>
Car negie</w>
CL SACP</w>
Black Rock
A vi
A ffili
A ber
5. 3
20. 3</w>
198 5</w>
该 等
联 公司
我们的 关
我们的关 系人
关 联公司
о в</w>
н и
ко м
и з
д ан
y ors</w>
y ance</w>
work place</w>
wi reless</w>
where as</w>
wh y</w>
war ning</w>
vulner able</w>
vi g
versi es</w>
vari um</w>
us et
uset ts</w>
unanim ity</w>
un fulfilled</w>
un f
tra ffi
tra -</w>
thir d
tg om
tgom ery</w>
tern s</w>
telec ommunications</w>
t op
t ab
susp ends</w>
surve yors</w>
subscri b
sub- licensee</w>
sub- licensable</w>
su ade</w>
stric ter</w>
sta yed</w>
solicit or</w>
sen si</w>
second ly</w>
sac h
sach usetts</w>
s la
s bury</w>
s ary</w>
ret ro
res olving</w>
rep rints</w>
rem ot
rein statement</w>
redund ancy</w>
rec ital</w>
re mit</w>
pro posing</w>
pro bl
probl ems</w>
po ol</w>
phr ases</w>
ph a</w>
per suade</w>
p lead</w>
out come</w>
oun ding</w>
ou d</w>
organiz ations</w>
op en
oma s</w>
ola mento</w>
non- solicit</w>
n ing
mess aging</w>
ma iled</w>
m ot
los sary</w>
loc k</w>
like lih
likelih ood</w>
lij k</w>
lea ves</w>
k in
kin ds</w>
k ara</w>
judg ements</w>
ist op
is able</w>
inv ited</w>
inv erse</w>
interfac es</w>
inter act</w>
inform ación</w>
in deed</w>
in ary</w>
ig el</w>
i onal</w>
i o</w>
hot els</w>
h alf</w>
gre at
great est</w>
g gs</w>
forwar d-
forward- looking</w>
forma ts</w>
flu c
fluc tu
flo or</w>
fin ger
exerc isable</w>
est e</w>
est a</w>
esc ence</w>
entit lements</w>
ent rep
endeav ors</w>
encour aging</w>
en comp
en ables</w>
ei ght</w>
e- mails</w>
e u
e in
e -</w>
document s/
dispu ting</w>
dis solved</w>
di e</w>
dg ed</w>
depos its</w>
depar tments</w>
cu red</w>
cor relative</w>
contro versies</w>
contemp late</w>
comp ared</w>
co .
classi fication</w>
child ren</w>
cas o</w>
bu y</w>
bon ded</w>
bill ing</w>
bec a</w>
be gin</w>
b right</w>
av enue</w>
av en
at tributed</w>
at to</w>
ar i</w>
an tes</w>
an cies</w>
am ed</w>
al le
ag h</w>
adv ancing</w>
adjudic ate</w>
acqui escence</w>
W al
W I
Ven der</w>
VARI ATION</w>
V o
Uni formity</w>
Un authorised</w>
US IN
USIN ESS</w>
Typ e</w>
Tri beca</w>
Title /
Time tables</w>
Th omas</w>
Ter m
Tad deo</w>
TER S</w>
T ot
T CG</w>
T BC</w>
T ANCE</w>
St ep
Sou thern</w>
Sla very</w>
Sam il</w>
SUR VI
ST OR</w>
S. a</w>
S ite</w>
S hel
S er
Rol lover</w>
Regar dless</w>
RA LI
RALI A</w>
R ose</w>
R igel</w>
Per mit</w>
Pen alty</w>
Pay ables</w>
PARTI CULA
PARTICULA R</w>
P ub
OC 3
OB AL</w>
O Rock</w>
Nor ton</w>
N. A.</w>
N ic
N Q</w>
N C</w>
Münch en</w>
My DNA</w>
Mon tgomery</w>
Mas sachusetts</w>
Ma x</w>
Ma kara</w>
MDL 2</w>
M ir
Ltd. 301</w>
Le tterhead</w>
LUX EM
LIMIT ATIONS</w>
L.L. C</w>
L AN
Kno w
J urisdic
Interpret ation
Interes t
IS SU
INTERE ST</w>
IN ADEQU
INADEQU ACY</w>
I ER
H or
H of
Guaran teed</w>
Gri ff
Govern ance</w>
GO ING</w>
GL OBAL</w>
Ful bright</w>
Fit ch</w>
FO RE
F Y
Exhib its</w>
Exclusi on</w>
Excep tional</w>
En cumb
ER IC
EC2 V</w>
EC2 A</w>
EC 1
E d
Di vision</w>
Dat i</w>
DRA FT</w>
DISPU TE</w>
D ou
Conve x</w>
Cl ara</w>
Chr istop
COMP LIANCE</w>
COMP AN
COMM UNIC
CH L</w>
C y
C R
By for</w>
Boulev ard</w>
Bet a</w>
B eing</w>
B e</w>
B ab
B USINESS</w>
As sump
Appen dices</w>
An glia</w>
Amer ican</w>
Al varium</w>
Al pha</w>
AUST RALIA</w>
AS LA</w>
AP PLY</w>
AN S</w>
AM P
ACCEP TANCE</w>
AC H
AB N</w>
A z
A V</w>
A K
95 1</w>
94 111</w>
8 9</w>
60 3
6. 7</w>
5 7</w>
48 3368</w>
4 6
3 6.2</w>
3 2.2</w>
29. 2</w>
2 A
2 4.1</w>
2 1.4</w>
2 1
199 6</w>
18. 5</w>
16 8</w>
15. 2</w>
13. 5</w>
11 8</w>
11 483368</w>
1. In</w>
1 B</w>
1 7.3</w>
1 20</w>
00 pm</w>
. This</w>
- end</w>
vio lations</w>
tribut or</w>
there for</w>
t ection</w>
t ask</w>
subst ances</w>
sp ent</w>
respon ded</w>
repudi ates</w>
re visions</w>
re vers
re plic
re j
pos itive</w>
po int
point ment</w>
pli cation</w>
piec e</w>
per forms</w>
per c
perc eived</w>
p o</w>
ordin ance</w>
order ly</w>
no- names</w>
n in
nin ety</w>
modi fies</w>
min ent</w>
mer ges</w>
m en</w>
lan gu
langu ages</w>
ke ley</w>
ion ix</w>
im prove</w>
im minent</w>
f er</w>
explo iting</w>
ement al</w>
e j
develop s</w>
contemp lates</w>
conc ise</w>
comple tes</w>
busin ess
arg u
aliz ation</w>
al locate</w>
________________________________ _______</w>
V ANT</w>
Un completed</w>
Third- Party</w>
Th rou
TA IL
TAIL S</w>
Suppl emental</w>
St ati
Simb ionix</w>
SW1 Y</w>
RELE VANT</w>
REC T</w>
R PO</w>
R IS
P ast</w>
P OW
POW ER</w>
Nor d</w>
Non-Solic it</w>
ND As</w>
Liber ty</w>
INDI RECT</w>
I L</w>
H AS</w>
F CPA</w>
F .
DE TAILS</w>
Comple te</w>
Col l
CONSEQU ENTIAL</w>
CONN ECTION</w>
B EEN</w>
Ap pointment</w>
6. 2
6 00</w>
33 -3</w>
2.2 The</w>
2 33-3</w>
2 2
11 /
00 0</w>
................................................ ...</w>
招证香港 、
招证香港、 其各自
招证香港、其各自 之
招证香港、其各自之 关联公司
公司 、
公司、 招证香港、其各自之关联公司
‎28. 1</w>
‎ 7.3</w>
‎ 7.
я в
ч ес
у ч
у сл
усл ов
п о</w>
п исьм
п ет
пет ент
ом петент
ов ан
настояще го</w>
н ую</w>
ли ц</w>
ли б
либ о</w>
информаци ю</w>
ет ся</w>
е ст
К омпетент
ś ci
í a</w>
za Express</w>
y lon</w>
wor ked</w>
with holds</w>
vo ise</w>
veter ans</w>
utili z
un subordinated</w>
udi ation</w>
u mer
ts /
transi tional</w>
third ly</w>
th ought</w>
termin ating</w>
ter rit
sy l
sup ran
supran ational</w>
sub- service</w>
str ai
stipul ates</w>
sta mp
stamp ed</w>
st ren
stren gth</w>
st en</w>
st ati
spe ak</w>
si zed</w>
si an</w>
sh red
servic ing</w>
se gu
se greg
scru tin
sam er
samer ica</w>
s m
s anitization</w>
rou ters</w>
ro ot
root -
root- cause</w>
ris tian</w>
restric ts</w>
resign ations</w>
rescin ds</w>
reproduc ing</w>
repe aling</w>
rep ublication</w>
ren ew</w>
ren ess</w>
reg istering</w>
reg is
recal culation</w>
rec ently</w>
realis tic</w>
re alised</w>
r o</w>
quar ter</w>
qu otes</w>
qu anti
purchas ers</w>
prot ec
por ters</w>
poll ution</w>
person ali</w>
perf ection</w>
pay s</w>
pay roll</w>
pat terns</w>
over lea
overlea f</w>
out line</w>
or tened</w>
ong stop</w>
ol u
ol ed</w>
ol d</w>
ol are</w>
occup ation</w>
non- commercial</w>
non con
ne u
na am
naam lo
naamlo ze</w>
multi currency</w>
mort em</w>
min al/
minal/ Civil</w>
merg ency</w>
mechan ical</w>
mak er</w>
machin ere
machinere adable</w>
m enting</w>
log on</w>
lo y
liqu idity</w>
leak ed</w>
law y
land s
l ittle</w>
l i</w>
l ent</w>
j e
iz zaExpress</w>
it y-
it ong</w>
it ec
invest ors/
interf erence</w>
inst ances</w>
incur s</w>
in i</w>
in coming</w>
impar ted</w>
im possible</w>
ide line</w>
i to</w>
head ed</w>
harm ful</w>
h one</w>
h atta
hatta n</w>
gu ideline</w>
gu ide</w>
fraudul ently</w>
fr actions</w>
ford shire</w>
for g
for ced</w>
flow s</w>
fi g
f ocus</w>
f ew</w>
expec tations</w>
escal ate</w>
es ale</w>
equ als</w>
entit ling</w>
ement s
emb ody</w>
ell s</w>
ell o</w>
el le</w>
ed ited</w>
ear ney</w>
don agh</w>
disp at
dispat ched</w>
dish onest</w>
disc s</w>
differen tly</w>
deplo yed</w>
defend ants</w>
dec imal</w>
d ependent</w>
d able</w>
curren ce</w>
cualqui er</w>
cu i</w>
cryptog raphy</w>
conve yance</w>
consecu tive</w>
commer ci
comm only</w>
com unic
com o</w>
cle ared</w>
cl o
cha irman</w>
bur gh</w>
bro ad</w>
bran ds</w>
bo ilerplate</w>
beh ind</w>
be voise</w>
b its</w>
b ench
b ating</w>
avi o</w>
av ail</w>
au ction</w>
att on</w>
as y
argu ed</w>
appro ached</w>
applic ant</w>
air fare</w>
adhere s</w>
ad mitted</w>
activ ated</w>
acceler ated</w>
ab ilit
a w</w>
a ffili
Warran t</w>
WAR NING</w>
W- 9</w>
W itness</w>
W P/
WP/ StB</w>
W ORK</w>
V AN</w>
Un it</w>
U A</w>
Tran samerica</w>
Tr us
Time fr
T ür
T est</w>
St yle</w>
St e
Sign avio</w>
Shi eld</w>
Sh ortened</w>
Se zione</w>
Sand M</w>
Sal le</w>
SUB JECT</w>
STAT E
STATE MENT</w>
SENI OR</w>
S quire</w>
S GF
SGF CR</w>
Rep udiation</w>
Reme diation</w>
Rem ote</w>
Reg olamento</w>
Red C
RedC at</w>
REQUIRE D</w>
R PC</w>
Qu een</w>
Pre existing</w>
Post poned</w>
Po oled</w>
Pet ro
Person ali</w>
Per i
Pay able</w>
Pass words</w>
PU B
PRE CE
PRECE DENT</w>
P ress</w>
P izzaExpress</w>
P enetration</w>
P atton</w>
P H
Out side</w>
O ne
O IT</w>
Noti ce
Neg ative</w>
NOTI FICATION</w>
N ATURE</w>
Multi ple</w>
Modi fication</w>
Man hattan</w>
Mal ta</w>
MAT ERI
MA Y</w>
M s.</w>
M G</w>
Len d
La Salle</w>
LO ORE</w>
LO E</w>
L ongstop</w>
L ang</w>
L D
Ko rea</w>
Ke y-man</w>
K now</w>
K ing</w>
K earney</w>
Ju dic
J. P.</w>
J un
Inves tig
Instal ments</w>
Ind enture</w>
In trusion</w>
IS H
INTER NA
IC S</w>
I/ we</w>
I I
I AS</w>
Har dware</w>
Ha itong</w>
H and
H am
H R</w>
Gran tor</w>
G ro
G lossary</w>
Fin sbury</w>
FIN AN
F uture</w>
F re
F ern
F ED
Expi ration</w>
Exper tise</w>
Ex tracts</w>
Ex ton</w>
El lis</w>
Ed mond</w>
ER C</w>
EC2 N</w>
E mergency</w>
Director /
Defin ed</w>
De tection</w>
De bevoise</w>
Date Repayment</w>
Dat ab
DU E</w>
D MS</w>
D GE</w>
Cri minal/Civil</w>
Counterpar ts
Converge- IT</w>
Con ventions</w>
Ch anc
CORPOR ATION</w>
COP IES</w>
CH AN
CHAN GES</w>
CGM AL</w>
C ou
C U</w>
C D</w>
Bo ggs</w>
Bab ylon</w>
BOR ROW
BEN OIT</w>
B ru
B AR
Assess ments</w>
Arrang ement</w>
Ar donagh</w>
Appro val</w>
Altern atively</w>
Allow ances</w>
Aktieng esetz</w>
Acqu iring</w>
AT ED</w>
ARIS ING</w>
AM RO</w>
ACCUR ACY</w>
A V
A LL
94 3/
943/ EU</w>
9. 30
9.30 am</w>
9. 1
9 3</w>
800 -8
800-8 8</w>
8 4</w>
75 00
7 951</w>
6. The</w>
6 ,66
6,66 6.
500 ,000,000</w>
5 L
5 8
4. Fees</w>
4 2.6</w>
4 10</w>
38. 6</w>
30. 8</w>
3.3 We</w>
3. Return</w>
3 2.5</w>
29. 1</w>
28. 16</w>
28. 10</w>
25. 13</w>
2016/ 943/EU</w>
200 ,000,000.00</w>
2. The</w>
2 ,000,000</w>
18. 6</w>
18 Entire</w>
18 9</w>
17 Application</w>
16 Non-Solicitation</w>
15. Release</w>
15 7</w>
14. 06.11</w>
13 7</w>
13 2</w>
11 61</w>
10. 1
10 8</w>
10 4</w>
1. Definitions</w>
1. Definition</w>
1. Confidential</w>
1. 00</w>
1,333,333,333.3 4</w>
1 6.2</w>
1 33,333,333.3
00 00</w>
0 5</w>
0 1.
. ……………………………………………</w>
,66 6,666.
we dish</w>
un limited</w>
un lawfully</w>
ulti mately</w>
u g
treat s</w>
trans ported</w>
trans cripts</w>
ti l
til h</w>
ta Du
taDu tilh</w>
sel lers</w>
secon ded</w>
sec ret
s ick
sick ness</w>
s chaf
rul ing</w>
repudi ate</w>
remedi al</w>
re vision</w>
pu ts</w>
propri e
proprie tor</w>
pos tal</w>
pi er</w>
photograp h</w>
pass age</w>
not ably</w>
n esses</w>
mortgag es</w>
ma d
li ve</w>
lev y</w>
le tterhead</w>
it s/
is on</w>
is h
introduc es</w>
intern ally</w>
inter views</w>
instruc ting</w>
infring es</w>
indemni fying</w>
four th</w>
fic ally</w>
ent a
enh anc
employ s</w>
dic ated</w>
develop ing</w>
deplo yment</w>
den y</w>
correc tive</w>
consoli dates</w>
comput ations</w>
comp ati
compati ble</w>
ci pl
au taDutilh</w>
asser ted</w>
analy ze</w>
ai res</w>
acknowledg ing</w>
TIT LE</w>
Stati c</w>
Sta mp</w>
Speci fication</w>
Speci fically</w>
SI B
S wedish</w>
S AST</w>
Ref ers</w>
POS SIB
PK I</w>
P ocket</w>
Out -of-
Out-of- Pocket</w>
N autaDutilh</w>
Min imum</w>
MA IL</w>
HR B</w>
E MAIL</w>
D AST</w>
C ER
Ber lin</w>
Ber keley</w>
B P</w>
Aut om
Aber tis</w>
AL U
A ED</w>
9 8</w>
18 0</w>
12 /
和 其各自的代表
………………………………………… ………</w>
‎ 5</w>
‎ 2</w>
шени и</w>
со гла
ра с
пр ин
о т</w>
ны м</w>
люб ых</w>
л е
ит ель
и й</w>
ж д
е м</w>
д е
в с
а я</w>
ści ą</w>
ł ka</w>
ür ich</w>
ó łka</w>
£ 1
zi al
zial no
zialno ścią</w>
work man
withdraw als</w>
with al</w>
whol esale</w>
we g</w>
vis itors</w>
vennoot scha
vennootscha p</w>
v esting</w>
v as
uth or</w>
ut most</w>
uro s</w>
up dating</w>
und red</w>
un sten</w>
typ ical</w>
trans mits</w>
tran sac
tran ches</w>
titu tional</w>
ti va</w>
th en
ten ants</w>
t ut
t ot
t ch
t al
summar ized</w>
sugg ested</w>
stu d
sm all</w>
sit ting</w>
s w
s ounding</w>
s can</w>
row ana</w>
represent antes</w>
real ise</w>
re- transfer</w>
re y</w>
re ver
re deem</w>
re b
raph ical</w>
r a</w>
pric e-</w>
pres sion</w>
pow i
powi ed
powied zialnością</w>
phot oc
patent able</w>
p le
p es</w>
p ati
ou l</w>
ot ter
os en</w>
ori ly</w>
ordin arily</w>
on ą</w>
olu ments</w>
oll ars</w>
ol a</w>
og raphical</w>
od powiedzialnością</w>
oblig ates</w>
o red</w>
o gran
ogran icz
ogranicz oną</w>
non- recurring</w>
non- U.S.</w>
mom ent</w>
migr ated</w>
medi ation</w>
mark eted</w>
maj eure</w>
mad ys</w>
m ere</w>
lij ke</w>
li go</w>
less or</w>
lar ge</w>
land l
landl ords</w>
l mans</w>
judic i
joint- venture</w>
j lmans</w>
invo ke</w>
investors/ acquirers</w>
inv ention</w>
intern ationally</w>
ini on</w>
ing er</w>
independ ence</w>
imp ede</w>
im properly</w>
ign oring</w>
identi al</w>
i k</w>
ha us</w>
h undred</w>
h ourly</w>
h ments</w>
h app
govern ments</w>
go ings</w>
gn a</w>
gh ted</w>
gg ing</w>
gener ation</w>
frequ ently</w>
fre ed
freed oms</w>
fores ight</w>
for mi
fluctu ation</w>
fi ably</w>
fav our
f on
f lex
expun ging</w>
expres ses</w>
exhaus tive</w>
ex changes</w>
evi den
eviden ces</w>
es tions</w>
ept une</w>
entr us
enjoin ing</w>
enh ei
enhei mer</w>
encomp ass</w>
en es</w>
em oluments</w>
em ics</w>
elec tric
effici ent</w>
eff ec
ear ing</w>
e is
du plication</w>
do or</w>
dismis sed</w>
discrimin atory</w>
discre tionary</w>
dis position</w>
direc ting</w>
dimin is
design ates</w>
den s</w>
deleg ation</w>
deleg ated</w>
d ay
cus ing</w>
cur tail
cot t</w>
convers ation</w>
cons erv
con vention</w>
con ta
comp l</w>
comm o
co ding</w>
co den
clear ing</w>
claim ants</w>
cl es</w>
ck haus</w>
chec ked</w>
cha in</w>
ch osen</w>
ch ing</w>
carri er</w>
bri b
brib es</w>
bre ak</w>
bre ak
bar rier</w>
awa reness</w>
ati es</w>
arri ved</w>
ar ity</w>
appen dix</w>
any on</w>
announ ces</w>
and on
allow ances</w>
ag en</w>
adjudic ated</w>
achiev ement</w>
ab andon
a sh
a ining</w>
a e</w>
________________ _________________________</w>
Z ürich</w>
X Co</w>
W in
W e
W as</w>
W OR
Vi en
Ver trag</w>
V illage</w>
V enue</w>
V O
V AL</w>
Under standing</w>
U M</w>
Throu gh</w>
TI V
T o
T elec
T ask</w>
T OT
TOT AL</w>
Sign ina</w>
Sell ing</w>
Seg ment</w>
STI TU
SOLU TION</w>
SIGN ING</w>
SI CA
SHARE HOLD
SHAREHOLD ERS</w>
SHARE HOL
SHAREHOL DER</w>
S ources</w>
S D
Recei pt</w>
Rec on
RE SOLUTION</w>
RE POR
RE LA
R otter
R an
Port folios</w>
Peri od
PRO JEC
PARTN ERSHIP</w>
P ow
Offic ers</w>
Oblig ors
Non- Group</w>
N omin
N eptune</w>
Mo dern</w>
Mar ina</w>
M erc
M er
M em
M ap
Los s</w>
Lo gging</w>
Le ases</w>
LI ABLE</w>
LE T
Know -how</w>
J B</w>
Int egr
Inc .
In tent</w>
IS I
I Ds</w>
Ho ist</w>
Her ac
Hand ling</w>
Griff in</w>
Gar dens</w>
Facilit y/ies</w>
FORE GOING</w>
F low</w>
F J</w>
F CA</w>
Ex cusing</w>
Eth ics</w>
El ection</w>
EV ENT</w>
ER ING</w>
ENER GY</w>
EC4 M</w>
E ven</w>
E gg
E ducation</w>
E bao</w>
E MP
E H
E ACH</w>
Disclos e</w>
Develop ed</w>
Dama ge</w>
DISCL A
D o</w>
D D
Consult ations</w>
Cons titutional</w>
Comple tion
Commission ers</w>
Ch ur
Ch es
Certi fic
Car ta</w>
Cal ligo</w>
Cair n</w>
Ca hill</w>
CONFIRM ATION</w>
CO LL
CL MG</w>
CG A</w>
C anyon</w>
C B
Bid co</w>
BI L</w>
BACK UP</w>
B ak
B SD</w>
Attor ne
Assump tions</w>
Ar t</w>
Appro pri
Appro aches</w>
And re
AT T
AS ED</w>
ARRANG ER</w>
AN TI
AC CE
A rowana</w>
A madys</w>
A X
A R</w>
A D</w>
9.5 You</w>
9. 9</w>
7 9
5L B</w>
5. 7</w>
5 :00</w>
33 3</w>
3. 8</w>
3 1.1</w>
25 5</w>
2.4 Where</w>
2. 5
2. 1The</w>
2 4.
198 2</w>
13 6</w>
12 8
11 7</w>
10. 6</w>
1 7.2</w>
03. 07</w>
0 9.
/ rights</w>
................................................................ .....</w>
- term</w>
- approved</w>
,000 .00</w>
, 500,000,000</w>
ü r</w>
word -
word- processor</w>
unic ation</w>
un necessarily</w>
tw ice</w>
train ed</w>
telec opy</w>
tain able</w>
supervis ed</w>
sub- licensees</w>
struc turing</w>
res idential</w>
ren e
ref ra
record -
record- keeping</w>
pr ises</w>
pl ants</w>
perio dic
periodic ally</w>
oun ded</w>
modi fying</w>
mer chan
l s</w>
ke eps</w>
justi fied</w>
its/ their</w>
implic itly</w>
ill ness</w>
furnis hes</w>
fulfi ll</w>
forg ery</w>
esell schaf
es ty</w>
en rol
el la
eigh teen</w>
du ms</w>
de dicated</w>
day -to-
day-to- day</w>
d ations</w>
cor rupt</w>
continu ous</w>
comp ounded</w>
choos es</w>
charg ing</w>
cap e</w>
anc e
________________________ ____
Wirtschaftsprüfungsg esellschaf
Wirtschaftsprü fer</w>
U L
SE E</w>
Rom ania</w>
Retur ning</w>
R ank</w>
PER FORM
PERFORM ANCE</w>
O /
Netw or
NOV A</w>
Lond on
Loc ation</w>
K IN
J os
J en
G rowth</w>
EXCLU SI
E SS
Dis aster</w>
DE U
Coun sels</w>
Cooper ative</w>
Comm unity</w>
CU M
COMM ER
CIR CUM
C C</w>
Bl ank</w>
A qu
9. 7
9. 5</w>
40 2</w>
3 rd</w>
16 2</w>
公 司</w>
书 面
………………………………………… …….
‎ 6</w>
‎ 12.3</w>
ы т
ы е</w>
щ и
п ра
ка з
к он
ени е</w>
друг ой</w>
в ер
ательств а</w>
Конфиденциаль ную</w>
ú n</w>
É T
ÉT É</w>
É RA
ÉRA LE</w>
É N
ÉN ÉRALE</w>
year -end</w>
y k
y fall</w>
wit ter
w ers</w>
w er</w>
w ar</w>
vol um
vo or
vin ce</w>
vas j
vasj on</w>
v ere
utilis es</w>
us k
ur s</w>
uni form</w>
un encrypted</w>
un consolidated</w>
um -
tur a</w>
traffi c
traffic king</w>
trac ked</w>
thin ks</w>
th ur</w>
th reat</w>
t witter
sym bo
symbo l</w>
sy mp
susp ic
survi ving</w>
summ ons</w>
sugg estions</w>
sugg est</w>
substit utes</w>
stic k</w>
stand ard
standard ise</w>
sp .
sla very</w>
sk et
sket ches</w>
si lon</w>
short fall</w>
short est</w>
scrutin y</w>
s traße</w>
s ter</w>
s ar
rup hone</w>
ris erv
ric hi
ri ve</w>
ri ting</w>
ri ot</w>
revoc able</w>
retro active</w>
resh fields</w>
repudi ation</w>
replic ate</w>
replac ements</w>
rep ay
ren tal</w>
re- export</w>
re- assignment</w>
re valuation</w>
re drawing</w>
re de
rede ema
redeema ble</w>
re ading</w>
quali fying</w>
public ise</w>
pub lis
pro mo
prejudic ing</w>
pre cludes</w>
port ation</w>
par alle
paralle l</w>
p leased</w>
ordin ances</w>
or ial</w>
oper ator</w>
on t
ok run
oc o</w>
numer ically</w>
nor ma
non- observance</w>
non- assignable</w>
no on</w>
ne ar</w>
n ul
ment ary</w>
me t
me ant</w>
ma tion
ma ge</w>
li ving</w>
lawy er-
lawyer- client</w>
las h</w>
larg er</w>
la un
la p</w>
l n</w>
l ite</w>
ke wise</w>
k o</w>
k i</w>
k en
join der</w>
it ated</w>
is a</w>
invest ee</w>
inter ception</w>
inno vasjon</w>
increas ing</w>
in- house</w>
in fo</w>
in ep
inep lex</w>
in currence</w>
in competent</w>
im position</w>
ig i</w>
ich t</w>
ib as</w>
help ful</w>
gener ic</w>
g en</w>
fron ting</w>
four thly</w>
formi ties</w>
form ality</w>
for t</w>
financi als</w>
fail lite</w>
f er
expla ined</w>
expi res</w>
expen sive</w>
ex ico</w>
event ually</w>
encour ag
encourag ement</w>
embodi ments</w>
embarg o</w>
ema ils</w>
else innovasjon</w>
ella tion
ei j
effec tu
ee k</w>
e h
e g</w>
docu menting</w>
diver ging</w>
dis satisfied</w>
dis posals</w>
din burgh</w>
diff ers</w>
di dates</w>
descrip tions</w>
describ es</w>
des truc
depend s</w>
dep rive</w>
deliber ate</w>
del l</w>
dec line</w>
de m</w>
dat os</w>
d ane</w>
consumma ted</w>
construc ted</w>
confir mations</w>
config uration</w>
conc ession</w>
con tributors</w>
co. uk</w>
cli ent
cler k</w>
clari fy</w>
cl arity</w>
check list</w>
ch at</w>
cap tured</w>
cap ture</w>
canv ass</w>
ca ution</w>
c ross-
c er</w>
c enters</w>
bro k
bor ough</w>
bl ue</w>
bid ding</w>
b ill</w>
aut or
aut om
ate zza</w>
at ement</w>
ass ment</w>
ash ington</w>
as king</w>
as esores</w>
as best
ar á</w>
ani an</w>
altern atively</w>
al tura</w>
al mente</w>
ag le</w>
adop ting</w>
actu arial</w>
ach er</w>
accord s</w>
accor d</w>
ac au</w>
a .</w>
________________________________ _______________________________</w>
Y S</w>
Y DE</w>
Wor k/
WIT HO
WITHO UT</w>
W riting</w>
W ol
W ashington</w>
W G</w>
W E
W C
Vir us</w>
Ver dane</w>
VA LI
V OL
Utilis ation
U FJ</w>
Tur naround</w>
Top ics</w>
Tit olare</w>
Timefr ames</w>
Th us</w>
Th ame</w>
TI E
T ruphone</w>
T own</w>
T emp
T ECH
T CGA</w>
T .</w>
Suppl er</w>
Sub processor</w>
Sk yfall</w>
Shel l</w>
Sha un</w>
SOCI ÉTÉ</w>
SC I
S ci
S ach
S QU
S LE</w>
Rus sian</w>
Rotter dam</w>
Rom anian</w>
Res p
Res ources</w>
Requ est
Rep rise</w>
Reg ional</w>
Re distribution</w>
RIGH T</w>
RI BER
RIBER Y</w>
REQUE ST</w>
REG AR
REGAR DING</w>
RE ND
RE LIANCE</w>
R HL</w>
Partner /
Par ibas</w>
Par i</w>
PROVISI ON</w>
PROJEC TS</w>
POSSIB ILITY</w>
PH ILI
P AT
Ori gin</w>
Or der/
Off erees</w>
Off eree</w>
ON E</w>
OC 300
Net light</w>
N or</w>
N ati
Mechan ics</w>
May fair</w>
Mand ate</w>
Maj esty</w>
Ma ur
MARKE TS</w>
MA K
M id</w>
M exico</w>
M et
M ess
M ee
M acau</w>
M LD
Lu igi</w>
Ltd PO</w>
Li kewise</w>
Lan e</w>
LUXEM BURG</w>
LL O</w>
LI BOR
LI ALE</w>
LEN DERS</w>
L is
L ar
KY1-110 4
KY1-1104 Cayman</w>
K ow
K altura</w>
K ONG</w>
J SA</w>
J D
JD W</w>
Is land</w>
Ir respective</w>
Informa tions</w>
IN E</w>
IN CI
INCI DEN
INCIDEN TAL</w>
I l</w>
I cel
Hold Co</w>
Herac les</w>
Har bour</w>
Ha ving</w>
HOLD CO</w>
H er</w>
H elseinnovasjon</w>
H ave</w>
H an
H ONG</w>
Gu idance</w>
GL YDE</w>
G ÉNÉRALE</w>
G ate</w>
FOR D</w>
FINAN CI
FI LIALE</w>
FA X</w>
F reshfields</w>
F eder
F UND
F ROM</w>
F AR
Execu ting</w>
Ex am
Ep silon</w>
Eng ine</w>
EXP ENS
EX CE
EXCE ED</w>
EU /
ENG AGE
ENGAGE MENTS</w>
EN D</w>
E- Mail</w>
E s
E n</w>
E dinburgh</w>
E agle</w>
E M</w>
E F</w>
E AS
EAS Y</w>
Discus sion</w>
Der inger</w>
DU TIES</w>
DISCLOS ER</w>
DELI VER
DE AL
D FSA</w>
D C
DC B</w>
Contrac ting</w>
Condi tion</w>
Com mentary</w>
Co brew</w>
Canc ellation
CUR REN
CONFIRM ED</w>
COMPLE TED</w>
COMPAN IES</w>
COMMUNIC ATIONS</w>
CI TI
C oco</w>
C ineplex</w>
C ategory</w>
C MC</w>
C K</w>
Bru ckhaus</w>
Bene fits</w>
BE N</w>
BAR CLA
BAN CO</w>
B. A</w>
B lock</w>
B inding</w>
B inary</w>
Ar thur</w>
Ad vo
AUR IGA</w>
ANTI -B
ANTI-B RIBERY</w>
AM L</w>
AFFILI ATES</w>
AD V
AC G</w>
A. T.</w>
8 2</w>
7 8
60 3</w>
6 4
5. No</w>
5. 8</w>
5. 1.2</w>
5. 1.1</w>
5 It</w>
4 3.2</w>
36. 6</w>
30. 10</w>
3 2.4</w>
27 7</w>
25 3</w>
22. 11</w>
201 X</w>
200 6/
20. 2</w>
20. 16</w>
2 2.1</w>
19. 8</w>
18 2</w>
17 4</w>
16 4</w>
15 6</w>
15 5</w>
15 ,000,000,000</w>
14. 5It</w>
14 8</w>
14 0</w>
13 9</w>
12 6</w>
11. No</w>
11 9</w>
10 5</w>
1. 25</w>
1. 11</w>
1. 10</w>
1 J
1 AF</w>
1 ,000,000,000</w>
................................................ ................</w>
- style</w>
,000,000 ,000.00</w>
， 我们
‎ 5.1</w>
z ard</w>
ur sement</w>
underwrit er</w>
un ities</w>
u ms</w>
u de</w>
tu it
tuit us</w>
to day</w>
timesc ale</w>
th ous
thous and</w>
stopp ing</w>
spa rency</w>
signific ance</w>
rup tions</w>
revers al</w>
reve als</w>
rej ected</w>
reduc ing</w>
reci proc
ran k</w>
r ac
pu lating</w>
program mes</w>
op posed</w>
on- line</w>
n é
n i</w>
mb ursement</w>
mani pulating</w>
long -term</w>
levi ed</w>
l it
lit er
interpre t
indefin ite</w>
in duced</w>
h tt
fal se</w>
exemp lary</w>
ex it</w>
en cia</w>
econom ically</w>
e as
dissemin ated</w>
disrup ts</w>
dili gently</w>
consoli date</w>
consequ ently</w>
c ab
beli eved</w>
agre eable</w>
________________ __________________________</w>
Y Y</w>
Wirtschaftsprüfungsgesellschaf ten</w>
VEN TION</w>
UN C
Trans port</w>
Tran sparency</w>
Te le
TRAN SF
T rojan</w>
St .</w>
SE T</w>
S qu
Rock y</w>
Rei mbursement</w>
RE IT</w>
R S</w>
Per ception</w>
PRO POS
P OT
POT ENTIAL</w>
Ori gin
Na me
MIN I
Li qu
Lend co</w>
La zard</w>
L ess
L GPL</w>
KIN D</w>
Jen ner</w>
In tuitus</w>
Immedi ately</w>
Grou p
EC TIVE</w>
DAMAG E</w>
Cor ruptions</w>
CIRCUM VENTION</w>
CH AR
CER TI
Barcla ys</w>
BA N</w>
Ar tis
8 5
7 -
23 9</w>
2. 1.1</w>
2 :
15. 4</w>
15 1</w>
14. 4You</w>
11 5</w>
- month</w>
- O
证 券
本承诺书 的
有限 公司</w>
或 其他
包 括
公司、招证香港、其各自之关联公司 和其各自的代表
保密资料 的
………… …….
‎ 7</w>
‎ 4</w>
‎ 3.7</w>
ы м</w>
щ ие</w>
ш ения</w>
т о
со ответств
соответств ии</w>
раз гла
пр о
от но
ож ет</w>
но е</w>
м ожет</w>
м ер
лиц а</w>
к р
й ств
е м
б е
а ра
а р
а ми</w>
z ek
y/ o</w>
y si
ysi ological</w>
wri t</w>
wis hing</w>
w aste</w>
vo s</w>
vi deo</w>
ventu rer</w>
ut ures</w>
ut -off</w>
use fulness</w>
up held</w>
unf ett
unfett ered</w>
un known</w>
un il
unil ater
unilater ally</w>
um- sized</w>
uer do</w>
u li
u ire</w>
trans l
trans itory</w>
trac ing</w>
tr o</w>
tp one</w>
tis sement</w>
tin g
ti m</w>
ti cal
tical -level</w>
thes is</w>
then -
th res
th ony</w>
ter n</w>
ter ior
temp lates</w>
tele ph
t strasse</w>
t ol
t ell</w>
syst em
sy mb
symb ols</w>
stud ents</w>
stock holder</w>
stand by</w>
sta d</w>
ssi fication</w>
spre ad
spec ulative</w>
so ft</w>
si ons
shi p
sever ity</w>
sensiti vity</w>
segu ito</w>
segreg ated</w>
se g
satisfact orily</w>
sar à</w>
s- made</w>
s tra
s take
s b
roun d</w>
rit ter</w>
resid es</w>
res ide</w>
res et</w>
rep ort
report able</w>
ren ts</w>
remedi ated</w>
reme ly</w>
remain ed</w>
rela xed</w>
rel ación</w>
rein stated</w>
redund ant</w>
rec k
reck less</w>
re ward</w>
re tail</w>
re kt</w>
ran saction</w>
ran ks</w>
ra w</w>
qu an
quan to</w>
q u</w>
protec table</w>
program me</w>
predecess or</w>
post poned</w>
pos tpone</w>
pi on</w>
ph ysiological</w>
per i
pen sions</w>
pe al</w>
p a</w>
ow ning</w>
over lap</w>
out goings</w>
oun ting</w>
origin ators</w>
or ation</w>
ong side</w>
on line/English</w>
ock enheimer</w>
o. o</w>
o par
o es</w>
non- technical</w>
non- infringing</w>
ni et</w>
ne h
na me
n t</w>
n l</w>
mot ora</w>
mo do</w>
mis cellaneous</w>
materi alised</w>
maj or</w>
m arg
loy alty</w>
long est</w>
le y
lay out</w>
l or</w>
k en</w>
ju red</w>
iz i
item ized</w>
inv ite</w>
interpre ting</w>
inter actions</w>
inspec tions</w>
insi ders</w>
inser ting</w>
initi alled</w>
inheren tly</w>
induc ing</w>
in jured</w>
in ese</w>
in correctly</w>
imm unity</w>
illa ume</w>
id emics</w>
i ed</w>
hos ted</w>
hei d</w>
he althcare</w>
haz ards</w>
harm ac
har ma</w>
h u
h tstrasse</w>
h o
gra du
gi a</w>
genu in
g ate</w>
g aran
full -time</w>
for going</w>
for be
forbe ar
forbear ance</w>
flo ating</w>
fix ing</w>
financ ings</w>
fin alised</w>
fiel d
fi er</w>
f reedom</w>
f oc
f it
ext remely</w>
execut ors</w>
examin er</w>
ev ol
establis hments</w>
establis hes</w>
er s
ep idemics</w>
ent ries</w>
ent es</w>
en w
el -
eij ing</w>
ei ve</w>
effi c
ed /
ecti ves</w>
ec edent</w>
easi er</w>
e y
e di
e des</w>
e de
dw ard</w>
displa ying</w>
dismis sal</w>
discoun ted</w>
dis tributors</w>
dis pos
dis claim
disclaim ers</w>
dis agreement</w>
den ote</w>
demonstr ation</w>
deli ghted</w>
decla res</w>
de vote</w>
de materialised</w>
d ur
d al
cu n</w>
cri tical-level</w>
coun ty</w>
cor pion</w>
conta mination</w>
comput ation</w>
com promised</w>
com pro
claim s-made</w>
ch i
cap ability</w>
c ell</w>
c ate</w>
bu y
bri be</w>
break down</w>
be arer</w>
barg aining</w>
b lan
b ills</w>
b ar</w>
authenti cate</w>
authenti c</w>
ation/ Settlement</w>
app ed</w>
ant ecedent</w>
ann e</w>
an -
amic ably</w>
am ounting</w>
al/ Sensitive</w>
al together</w>
al ongside</w>
al ising</w>
ag enda</w>
after wards</w>
affor ds</w>
affili ation</w>
accomp lis
acceler ate</w>
acc edes</w>
abs tract</w>
a h
Z i
YO U</w>
W1 J</w>
W eil</w>
W P</w>
Ve hic
VEN TS</w>
VALI D
VALID ITY</w>
V M</w>
V ERED</w>
V -
Unter neh
U. A</w>
U l
Tw in</w>
Transac tion
Ti er</w>
Ter min
TIV ES</w>
TEN ESS</w>
TECH NO
TECHNO LO
T I</w>
T EL
Sub processors</w>
Stand by</w>
Squ ared</w>
Speci fications</w>
Speci al/Sensitive</w>
Sir s/
Sci ences</w>
Sach s</w>
SURVI VAL</w>
ST AND
SP OR
SC Sp</w>
S.A. U</w>
S.A. S</w>
S mar
S corpion</w>
S RL</w>
S LL</w>
S CA</w>
Ric hard</w>
Resul t</w>
Respon si
Rechtsanw al
Re tail</w>
RO Y
REPRESENTA TIVES</w>
RELA TING</w>
RE L
R. L</w>
R op
Qu es
Process ors</w>
Pro vince</w>
Pro pos
Pro motora</w>
Port able</w>
Pat riot</w>
Parti cul
Pa pers</w>
PRE PAYMENT</w>
P reservation</w>
P lat
P harma</w>
P aying</w>
P av
P IT
Ox fordshire</w>
Op inion</w>
Offi ces</w>
OF AC</w>
O missions</w>
NE G
NEG LIGENCE</w>
N at
N ER</w>
Mir age</w>
Mid d
Medi um-sized</w>
MARKE T</w>
MAK ES</w>
M obile</w>
M ag
London SE1</w>
Lic htstrasse</w>
Le tter
Lar ge</w>
LO ANS</w>
LICENS ED</w>
L yn
L ap
Jurisdic tion
Jer sey</w>
J on
J e
J .</w>
Is lands
Inv ention</w>
Inform aciones</w>
Industr ial</w>
Indivi du
Indemni fying</w>
In tra-</w>
In novation</w>
In consistency</w>
ISSU ING</w>
IN NOV
IN I
I de
Hot el</w>
Hol d</w>
Here inafter</w>
H Q</w>
Gu illaume</w>
Gr an</w>
Gr acher</w>
G en
G ST</w>
G ET
Fin land</w>
F utures</w>
F EREN
F C
Eth ica</w>
Encumb rance</w>
EX T
ERIC A</w>
ENG AGEMENT</w>
EF F
E dward</w>
E VENTS</w>
De li
De adline</w>
Dat um</w>
DUC T</w>
DELI VERED</w>
DA Y</w>
D ritter</w>
Cont acts</w>
Confidenti elles</w>
Compe tent</w>
Company/ Consultant</w>
Comm unication</w>
Co- Owner</w>
Cla ss</w>
Cl ose</w>
Christop h</w>
Chanc ery</w>
Chamb ers</w>
Ch ristian</w>
Ch o
Carl yle</w>
CONTINU E</w>
COMPLE TENESS</w>
CLA IM</w>
CI ARY</w>
CERTI FIC
CELL ATION</w>
C ob
C LI
C IP
C EN
C AN
CAN CELLATION</w>
Bre aching</w>
Bran ds</w>
Bo dies</w>
Bas is</w>
Ba a
BI O
BER T</w>
BARCLA YS</w>
B ockenheimer</w>
B j
B et</w>
B eijing</w>
B arriers</w>
B V
Av ania</w>
Author ities</w>
Assign s</w>
As sumed</w>
As esores</w>
Arrang ements</w>
Ap peal</w>
Anti- Financial</w>
An thony</w>
Al location</w>
Agreement /
Administr ation/Settlement</w>
AP PRO
AM ERICA</w>
ALL Y</w>
AD E</w>
ABO VE</w>
A uthor</w>
A si
A part</w>
A l</w>
9 2
8.3 From</w>
8. 2We</w>
77 47</w>
7 8</w>
603 23</w>
6. No</w>
6 50</w>
6 3</w>
59 A</w>
5. 00pm</w>
480016 3
40 56</w>
4. No</w>
4. 1
4 3
30 2</w>
30 -
28. 03.07</w>
25 9</w>
201 3</w>
20 7</w>
20 2</w>
2. 3The</w>
2. 1.7</w>
2 22</w>
2 14</w>
19 34</w>
18. 10</w>
18 1</w>
15 th</w>
14. 1</w>
14 5</w>
14 3</w>
13 3</w>
12. 3
12 5</w>
10/ 11</w>
10 2
1. 1.1</w>
1 13</w>
1 10</w>
........................................ .......</w>
. 5</w>
- like</w>
- European</w>
, 7
, 500</w>
+ 31</w>
' S</w>
全 部
wit nesses</w>
un planned</w>
tw eigh
trans portation</w>
sub processing</w>
stre et</w>
st el
sion ed</w>
sharehol dings</w>
sh ows</w>
sh e</w>
ro b
ro ads</w>
res ale</w>
repe tition</w>
recru iting</w>
recru it</w>
re g</w>
priv y</w>
pass es</w>
p ack
ou tweigh
ome tric</w>
off- site</w>
nomin ees</w>
manufac ture</w>
liter ature</w>
li ches</w>
lea k</w>
know ing</w>
jo in</w>
j our
irretriev ably</w>
inst all</w>
initi als</w>
hel ps</w>
h an
g rid</w>
g ator</w>
f under</w>
f is
f amily</w>
err al</w>
ern sey</w>
entrep rene
enta iled</w>
enhanc ements</w>
end ance</w>
en ger</w>
dis charging</w>
di em</w>
decis i
cul tural</w>
con cluding</w>
con cludes</w>
commis sioned</w>
ce /
bir th</w>
bi ometric</w>
aux ili
att endance</w>
appoint ments</w>
alter ing</w>
ali gn
Zi jlmans</w>
Twit ter
Tri ple</w>
Sup pli
SW1 E</w>
ST ATE</w>
SI S</w>
Rep resentati
RO CA</w>
REPOR T</w>
Pri me</w>
Prec edence</w>
Parties .</w>
Obj ectives</w>
NON- CIRCUMVENTION</w>
L S</w>
K RS</w>
Gu ernsey</w>
F IT
En h
De als</w>
Ch ip</w>
Ch inese</w>
CHAR GES</w>
C ross
Bl ue</w>
BRI LL</w>
B S
B -
Autom obile</w>
As er</w>
Aqu am</w>
Appli cations</w>
Alli gator</w>
8. 1
8 7/
87/ EU</w>
6 th</w>
6 -
4. 7</w>
201 7/
20 2-
20 10/
2010/ 87/EU</w>
13 81</w>
13 1</w>
12 th</w>
10 00
0 3</w>
/ /
讨 论
目 的
措 施
不 得
………………………………………………. For</w>
‎ 7.4</w>
‎ 1.2</w>
‎ 1.1</w>
я т
ю р
ь ся</w>
у ще
со ответствующе
с ко
письм ен
обяз ательства</w>
о ст
лиц о</w>
к т
е е</w>
де йств
в о
а л
Сторон а</w>
Стор о
ü v
üv Tür
üvTür k</w>
ø r
ß enw
ßenw irtschafts
Ö PERA
ÖPERA TIE
ÖPERATIE VE</w>
zi o</w>
z i</w>
ye laws</w>
y ne
yne on</w>
y ard</w>
y a</w>
xx .
x is</w>
x ic
xic ap</w>
wr ap</w>
withhol dable</w>
winding -</w>
will ingly</w>
wi j
w ound</w>
volum es</w>
visi ons
vig il
vic ari
vi de
vi d
vi al</w>
valid ation</w>
v est
v ec
vec tors</w>
uth er
uther land</w>
unc tual</w>
un willingly</w>
un protected</w>
un cured</w>
un availability</w>
un audited</w>
typ ographical</w>
tri vial</w>
tri es/
tries/ areas</w>
tre aties</w>
transl ator</w>
transi tioning</w>
trac eable</w>
tr al</w>
tr ag
top s</w>
to ken</w>
to dian</w>
time tables</w>
time lines</w>
tig ated</w>
tic ated</w>
the tically</w>
th in</w>
ten ancies</w>
tele vision</w>
tal king</w>
ta r</w>
t ren
t out
symp a
sympa thetically</w>
syl um</w>
supplement ary</w>
subscrib ers</w>
subordin ation</w>
sub- processor</w>
sub si
sub j
sub clause</w>
su al</w>
stu dent</w>
stri kes</w>
stic ks</w>
st ocks</w>
sp. k</w>
so ph
soph is
sophis ticated</w>
sign er
short en</w>
short -form</w>
sh ine</w>
sh eds</w>
set Co</w>
sequ es
seques tration</w>
sensiti vities</w>
sch ap
sam ple</w>
s/ Term</w>
s/ Cash/DCM</w>
s q
sq m</w>
s ott
sott os
s on
s ession</w>
s ei
sei z
s cop
ru gs</w>
row n</w>
ro ad</w>
ric k</w>
retriev able</w>
rest atement</w>
res trained</w>
res sed</w>
repay able</w>
rep arer</w>
rep aired</w>
ren t
recla im</w>
rech te
re mission</w>
rav en</w>
r t</w>
r is</w>
qui .
qui. do</w>
quasi- government</w>
qu ot
qu eries</w>
pu ed
propri ety</w>
proj ection</w>
priv ity</w>
prin ting</w>
pre- approved</w>
po lating</w>
pers ist
persist ently</w>
peri me
per ati
par ty/
p. a</w>
p unctual</w>
p as</w>
out sourcing</w>
ord on</w>
ord n
ordn ung</w>
or g</w>
opp el</w>
op ening</w>
ol ina</w>
og ue</w>
off set</w>
obvi ous</w>
o v
o tive</w>
o re
o las</w>
o eni
oeni x</w>
noncon forming</w>
non- recourse</w>
non- compete</w>
no ster</w>
neu tral</w>
networ king</w>
name ly</w>
n n</w>
n em
n ationality</w>
n ach</w>
n -out</w>
mode m</w>
mo vable</w>
mil estone</w>
ment ality</w>
me works</w>
mark ings</w>
mark ing</w>
mar ital</w>
man ual</w>
man -
mal ware</w>
ma tured</w>
ma s</w>
m us
m pli
low est</w>
log -
log- on</w>
lo gna</w>
lis sement</w>
lin ear</w>
li m
le um</w>
le tting</w>
le tter
law yer</w>
law back</w>
lap tops</w>
la yer</w>
la an</w>
ken strasse</w>
justi fiably</w>
je opar
izi oni</w>
iz rt</w>
iti us</w>
it y/
inter ruption</w>
inter polating</w>
inter governmental</w>
instru mentality</w>
instit u
initi ally</w>
influ encing</w>
inf erred</w>
in trusion</w>
in sufficiency</w>
in k</w>
in eligible</w>
in blue</w>
in al</w>
in accessible</w>
im practical</w>
im practicable</w>
im movable</w>
im migration</w>
il ty</w>
ic ks</w>
i mage</w>
i bility</w>
i as</w>
high light</w>
hei rs</w>
har d-
h onest</w>
h o</w>
gra de</w>
fra meworks</w>
formu lations</w>
fo re
flex ibility</w>
fin alising</w>
favour able</w>
fac tual</w>
f u
f reehold</w>
extinguis hment</w>
expan sion</w>
ex propriation</w>
ex changing</w>
ew all</w>
evol ve</w>
event ual</w>
eu x</w>
est oppel</w>
est ation</w>
ess is</w>
ess ere</w>
es/ No</w>
es _</w>
er s/
entrus ted</w>
ent i</w>
ens burg</w>
endor sement</w>
end inblue</w>
en acted</w>
ema iling</w>
electric al</w>
ein er</w>
ed- use</w>
eb ack</w>
ear ned</w>
e zione</w>
e ducation</w>
dr ink</w>
documents/ information</w>
dis poses</w>
dis c</w>
difficul ties</w>
di ritto</w>
di o
di g
di al
dial ogue</w>
dg ewall</w>
destruc tive</w>
des k</w>
des k
derog ations</w>
der nem
deplo y</w>
den ied</w>
dem an
def ease</w>
declar ations</w>
deb ar
de fic
d on</w>
d enda</w>
d ans</w>
cur ator</w>
cum pli
coun tries/areas</w>
coun ter</w>
coun ted</w>
cont esting</w>
cont ested</w>
conce al
conceal ment</w>
con formance</w>
con current</w>
compu ted</w>
compli anc
comple x</w>
commis sions</w>
collabor ating</w>
coll ective</w>
coden amed</w>
co- investment</w>
co pi
clo sures</w>
cl in
ch yard</w>
ch y</w>
ch equ
cas ting</w>
carve- outs</w>
ca dia</w>
c raft</w>
c ensured</w>
c ements
c apped</w>
c a</w>
business -like</w>
bu ying</w>
bir th
bes lag</w>
bench mark</w>
be t
bank rupt</w>
bad ges</w>
back -
b yelaws</w>
b a</w>
aven ues</w>
author izes</w>
audi o</w>
au x</w>
atur ity</w>
ater noster</w>
ate/ P
ate/P SL</w>
ate/ M</w>
at ed/
as so</w>
as er</w>
archi ves</w>
annex ed</w>
an ci
am ing</w>
al most</w>
al liance</w>
al le</w>
al ists</w>
ai ds</w>
ag ain</w>
affir ma
ad ence</w>
ad dendum</w>
ad denda</w>
act ments</w>
ach ers</w>
accru al</w>
accept ances</w>
a zza</w>
a ar</w>
______________________________ Name</w>
_ es_</w>
Z Z
Z U
ZU H
ZUH O</w>
Z E
ZE AL
ZEAL AND</w>
Z BANK</w>
Y es/No</w>
XX XXXX</w>
XX X
X b</w>
X ES</w>
Wy nn</w>
Wor ld</w>
Wol f</w>
Win chester</w>
WA I
W-8 BEN</w>
W ELL
WELL S</w>
W /
Vol ume</w>
Vien na</w>
V izrt</w>
V an</w>
V CT
Unterneh men</w>
Un lawfulness</w>
UNIC REDIT</w>
U sual</w>
U sing</w>
U GH
UGH TER</w>
U -1</w>
Twitter -owned</w>
Treat ment</w>
Title/ Capacity</w>
Termin ation
Te achers</w>
TS CH
TSCH E</w>
TRI AL</w>
TR ALE</w>
TOR ON
TORON TO
TO KY
TOKY O
TOKYO -
TOKYO- MITSU
TOKYO-MITSU B
TOKYO-MITSUB ISH
TOKYO-MITSUBISH I</w>
TI EN
TIEN GE
TIENGE SELL
TIENGESELL SC
TIENGESELLSC HA
TIENGESELLSCHA FT</w>
THE W</w>
TH OM
THOM AS</w>
TH EIR</w>
TA XES</w>
T üvTürk</w>
T ests</w>
T able</w>
T LAND</w>
Sur rey</w>
Sun shine</w>
Success ful</w>
Sub contracting</w>
St ut
Sp ółka</w>
Soci été</w>
So lely</w>
Sig ma</w>
Secur ity
Sch emes</w>
SW M
SWM S/
SWMS/ JSA</w>
SUB CONTRAC
SU MIT
SUMIT OM
SUMITOM O</w>
STRICT ED</w>
STAND ARD</w>
SPECIFI ED</w>
SPECIFI C</w>
SPECI F
SPECIF Y</w>
SM E
SME s</w>
SICA V-
SI AC</w>
SCO TLAND</w>
SCI ENCES</w>
S. à
S. L.
S utherland</w>
S endinblue</w>
S a
S SION</w>
S LA
SLA UGHTER</w>
Ru a</w>
Righ ts
Ri dgewall</w>
Responsi bilities</w>
Reser ve</w>
Res ource</w>
Regar ding</w>
Reg ensburg</w>
Recon ciliation</w>
Rech t</w>
ROY AL</w>
RO BERT</w>
RI DER</w>
REPRESENTA TIVE</w>
REL ATED</w>
RE STRICTED</w>
RA IF</w>
RA I
RAI F
RAIF FE
RAIFFE IS
RAIFFEIS EN
R ABO
RABO BANK</w>
Ques tionnaire</w>
Q B</w>
Pub lished</w>
Propos ta</w>
Proper ty/
Pow ers</w>
Pos t</w>
Pl essis</w>
Pic asso</w>
Pi azza</w>
Ph oenix</w>
Petro leum</w>
Pen sions
Pav ese</w>
Partner/ Associ
Partner/Associ ate/PSL</w>
Park hill</w>
Pa rent
PROCE E
PROCEE DING</w>
PL -style</w>
PAT RI
P reparer</w>
P aternoster</w>
P IA</w>
Or ders</w>
Oper azione</w>
Oper ations</w>
Op ps</w>
One File</w>
OX FORD</w>
OC300 277</w>
O U
Non- reliance</w>
Non- Waiver</w>
Non- Use</w>
Non- Obligor</w>
Non- Business</w>
Nati xis</w>
Nat West</w>
Na xicap</w>
NE DER
NEDER LAND</w>
N ominated</w>
N i
N W</w>
Münch en
Mis representation</w>
Maur itius</w>
Mag uire</w>
MITSU I</w>
MINI ON</w>
MI ZUHO</w>
MAT THEW</w>
MAR CO</w>
M es
M aturity</w>
M F
M ELL
MELL ON</w>
M ACQU
Lender s
Len gth</w>
Leg ally</w>
Leas ehold</w>
Lap se</w>
Land stra
La ke</w>
LO SS</w>
LIS H
LISH MENT</w>
LET TERS</w>
LE VE
LE EN
LEEN BANK</w>
L.E. K.</w>
L isting</w>
K B</w>
Invest bridge</w>
Interpretation 1</w>
Int ended</w>
Indemnit y
In tra</w>
In sufficiency</w>
In fo
Im plied</w>
Im migration</w>
Ide ally</w>
Icel and</w>
INTERNA TIONAL</w>
INNOV ATION</w>
IN VALIDITY</w>
IN TO</w>
IM Y</w>
IM I</w>
IC H</w>
I EC</w>
Her o</w>
HERE TO</w>
H. M.</w>
H icks</w>
H CP
Grup o</w>
Gran ts</w>
Geor ge</w>
Gener ation</w>
GUARANT ORS</w>
GT T</w>
GRO SS</w>
G PL-style</w>
G O</w>
For mer</w>
For ced</w>
Feder ation</w>
FINANCI AL</w>
FED ER
FAR GO</w>
FA UL
F r
F lash</w>
F RAN
Ex clusive</w>
Ever sheds</w>
Er r
En tit
EXPENS ES</w>
EXECU TION</w>
EST AB
ESTAB LISHMENT</w>
EREN LEENBANK</w>
EN DING</w>
EN CY</w>
EH 3</w>
EF PIA</w>
E m
E lev
E S
E G</w>
E FI
E 14</w>
Dis charged</w>
Dep ending</w>
Datab ase</w>
DO MINION</w>
DEU TSCHE</w>
DE FAUL
D ollars</w>
D V
Cus todian</w>
Cre ate</w>
Correc t</w>
Corpor ate/M</w>
Confir mation
Commitment /rights</w>
Cle an</w>
Cit yneon</w>
Chur chyard</w>
Cho ice</w>
Ch em
Certific ate
Cay man
Car ve-
CURREN CY</w>
CON SI
CON DUCT</w>
COMMER ZBANK</w>
CO ÖPERATIEVE</w>
CEN TRALE</w>
CB RE</w>
C. S</w>
C raven</w>
C lawback</w>
C e
C adence</w>
Bo logna</w>
Bar ak</w>
BRE W</w>
BRAN D
BORROW ERS</w>
BEN EFI
B orough</w>
B irk
B ASED</w>
Au ßenwirtschafts
Au dit
Assign ment
As su
As setCo</w>
Ar cadia</w>
Announ cements
Andre w</w>
An ti
Ag ent
Adv ancy</w>
Addi tion</w>
AS DA
AR IES</w>
AMP LE</w>
AK TIENGESELLSCHAFT</w>
AG ENCY</w>
AD ING</w>
ACCE SSION</w>
AC TION</w>
AC COUN
AB LES</w>
AB C</w>
A sylum</w>
A F
9 00
80 H</w>
80 333</w>
8 th</w>
8 The</w>
8 AB</w>
8 A
7500 8</w>
7 90
6 3
5. 4
5. 1The</w>
49 80H</w>
480019 00
400 1</w>
4. The</w>
4 8.2</w>
4 71</w>
4 2.2</w>
33. 7</w>
33. 20</w>
33. 11</w>
309 62</w>
3. Confidentiality</w>
3. 1.2</w>
3,333,333.3 3</w>
3 11</w>
2A P</w>
29. 8</w>
29. 7</w>
29. 6</w>
29. 3</w>
29. 21</w>
29. 16</w>
28. 31</w>
28. 17</w>
28 30962</w>
26. 4</w>
26. 10</w>
26 6</w>
25. 29</w>
22. 18</w>
2019 /</w>
201 4/
201 21</w>
200 8/
20 20
2.2 .</w>
2. Supplier</w>
2. 4The</w>
2 NQ</w>
2 4.4</w>
2 3.3</w>
2 29</w>
2 2.5</w>
19. 6</w>
19 72</w>
19 54</w>
19 49</w>
19 15</w>
18 5</w>
17 8</w>
17 5</w>
17 1</w>
17 0</w>
16. 3</w>
16 3</w>
16 ,666,666.
15 3</w>
15 0
14 73</w>
14 71</w>
13. The</w>
13 5</w>
13 4</w>
12. 1
11. 1
10. 3
10 00</w>
10 ,000,000,000</w>
1. Supplier</w>
1. 9</w>
1. 30</w>
1 20
02. 09</w>
0. 90</w>
0 7
0 6
0 3
0 2/
/ the</w>
/ H
................................................ .</w>
........................................ ......</w>
. pdf</w>
- либо</w>
' disclosing</w>
或 我们
使 用
xx xx</w>
wor thin
worthin ess</w>
wor m</w>
withhol dings</w>
wee k
viol ence</w>
viol ates</w>
vi ability</w>
v and
underwrit ers</w>
tr ated</w>
tit or</w>
tempor arily</w>
telec o
te c</w>
sub- division</w>
si milarly</w>
sett lements</w>
ryptog raphic</w>
ro m
revo ke</w>
ren ders</w>
religi ous</w>
registr ies</w>
re es</w>
prof itability</w>
pro files</w>
port ability</w>
pe aking</w>
particip ated</w>
pai gn</w>
p y</w>
p our</w>
outweigh ed</w>
or ti
op sgate</w>
off- line</w>
n is</w>
mo dule</w>
manufac tu
it z</w>
ish opsgate</w>
ir or</w>
instal ment</w>
in above</w>
ill a</w>
ich er
i an
here inabove</w>
h on
gin s</w>
et e</w>
d d
d af
daf ür</w>
cur able</w>
cryptog raphic</w>
credit worthiness</w>
coordin ate</w>
constit ution</w>
compla in
cl oud</w>
cam paign</w>
c ross</w>
bur g
bloc ks</w>
be ding</w>
b on</w>
ay mond</w>
assu ran
arrang ed</w>
analy se</w>
alleg ations</w>
ade ll</w>
acqu iror</w>
abo ve-
ab adell</w>
V ITY</w>
US B</w>
Transf ers</w>
T _
T P</w>
Suppli ers</w>
S abadell</w>
R aymond</w>
R CS</w>
PRIV ACY</w>
P atch</w>
Non- Public</w>
Negoti ation</w>
N IP</w>
LICENS OR</w>
K A</w>
Intro duc
Im pl
IS Rs</w>
INT RO
Enter prise</w>
EXCLUSI VITY</w>
Compe titor</w>
Comp ete</w>
Certi fied</w>
C lic
B ishopsgate</w>
B CP</w>
Avi v</w>
ALU ATION</w>
A ISRs</w>
A A</w>
53 B</w>
5 2
3 402</w>
2 3.2</w>
15 /
10. 7</w>
0 20</w>
/ M
................................................................ ................</w>
， 且
违 约
的 信息
形 式
交 易
………. ………</w>
‎ 9</w>
‎ 9.4</w>
‎ 9.2</w>
‎ 8.1</w>
‎ 19</w>
яв ля
щ их</w>
ц е
уще ств
у т</w>
та к
соответствующе й</w>
согла с
с ил
ре б
пр и</w>
отно шении</w>
от р
ис ключ
и з</w>
и в
з а</w>
ж а
ени й</w>
ени ем</w>
дан ного</w>
д ер
д а
г ов
буд ет</w>
бе з</w>
б ит
Сторон е</w>
Со ответствующе
Со ответствую
Письм ом</w>
ö perati
ñ ola</w>
ér min
ä l
´ s</w>
§ §</w>
zi e</w>
zek er
y cl
y be</w>
x im
work space</w>
work force</w>
who ever</w>
w ell
w c
visions partner
visionspartner sel
visionspartnersel sk
visionspartnerselsk ab</w>
visi ting</w>
vis ta</w>
vi er</w>
vest ment</w>
v on</w>
v an
utilis ations</w>
ur ations</w>
un funded</w>
tw ork</w>
trib utory</w>
tre ating</w>
trans missions</w>
tra in</w>
tr uth
tr av
tol er
time -
ti vo</w>
ti ous</w>
the ory</w>
th s</w>
th orough</w>
th ers</w>
th at
tg art</w>
targ eting</w>
t érmin
t on
t ali</w>
syst ema
systema tic</w>
sym metric</w>
supervis ing</w>
su ring</w>
su ma
suma bly</w>
sti pu
stipu lations</w>
stal lis
stake holders</w>
sta y</w>
st r</w>
so le
sole te</w>
si mpli
sel ecting</w>
scop es</w>
sch ema
schema tics</w>
sa ving</w>
s in</w>
s ford</w>
s essions</w>
s anctioned</w>
s 2
ry stallis
run s</w>
riserv atezza</w>
right ful</w>
richi este</w>
rev el
rest ando</w>
res traints</w>
ren eg
reneg oti
remot ely</w>
rel in
relin qu
regi onal</w>
rec ycl
rec ited</w>
rec ap
recap it
reat er</w>
re insurers</w>
re borrow</w>
re aching</w>
r itt
r ative</w>
r ati
pur ged</w>
publi cl
publicl y-
prob able</w>
pro ved</w>
preva ils</w>
predecess ors</w>
prec i
preci ation</w>
pre vis
pre sumably</w>
pre n
pos e
ple in</w>
pi red</w>
ph ones</w>
perime ter</w>
pat ented</w>
par k</w>
par aging</w>
p wc
p reg
p on</w>
p -
oth ian</w>
os ten
or n</w>
or i</w>
ons /
on /
omin ant</w>
ol ff</w>
obser ver</w>
ob solete</w>
o main</w>
nul lity</w>
nov ations</w>
not ep
notep aper</w>
norma tiva</w>
non- transitory</w>
non- targeted</w>
non- presentation</w>
non- infringement</w>
non- competition</w>
non compliance</w>
n ation
mus ic</w>
mp ing</w>
mis mo</w>
mis ma</w>
min ated</w>
mi ento</w>
mi c</w>
mess ages</w>
mer it</w>
mat ting</w>
mat ch</w>
market able</w>
marg ins</w>
manufac tured</w>
mand atori
mandatori ly</w>
ma xim
ma tical</w>
ma r</w>
m metric</w>
m ln</w>
lo dged</w>
limit ed-use</w>
like wise</w>
less ons</w>
legiti mately</w>
leg ale</w>
le icher
leicher weg</w>
le ados</w>
la y</w>
la mic</w>
l ec
judici aire</w>
iti es
it à</w>
it ali
ist ressed</w>
is hment</w>
invest ment
instruc ts</w>
inst ant</w>
inst alled</w>
ins tigated</w>
informa tion/
influ enced</w>
in- interest</w>
in significant</w>
in o
in cent</w>
in capac
incapac itated</w>
in activity</w>
imp e
im post</w>
ili p
id ation</w>
hos ting</w>
hi a</w>
hel m
head s</w>
h i</w>
h et</w>
gu ilty</w>
gran tor</w>
gr am
go et
goet z
gi o</w>
gh t
g ri
g et</w>
g al
fron t</w>
fron t-
fri end
formal ise</w>
forecas ting</w>
fore hand</w>
for t
for fe
foc used</w>
flo od</w>
finan cially</w>
fin ed</w>
fin anced</w>
fil m</w>
fig ures</w>
field work</w>
ff ing</w>
fail lissement</w>
expan ding</w>
ex ts</w>
ex tre
esti val</w>
es pa
es .
er o</w>
er age</w>
employ ers</w>
emp leados</w>
emer ge</w>
emb rac
emb ly</w>
ell ate</w>
el ectr
el ected</w>
ee l</w>
ec tion/
e/ Date</w>
e tical</w>
e ased</w>
dres s</w>
downlo ad</w>
divul g
displa yed</w>
dis regard</w>
dis paraging</w>
dis k
dis continued</w>
di tionally</w>
dg er
det ection</w>
design ees</w>
den o
deman ded</w>
deliver ies</w>
defin es</w>
decl aring</w>
dec eased</w>
de qu
de ad</w>
dama ging</w>
d ominant</w>
d at</w>
d .</w>
cu lations</w>
counter- signature</w>
coun cil</w>
correspon ds</w>
conveni ens</w>
cons er
cons ent
config urations</w>
conc eive</w>
con forms</w>
complianc e-
complain ts</w>
comm on
comm ing
co de-
clos est</w>
clari fications</w>
cl us
choos ing</w>
char t</w>
chan g
ch em
ce ability</w>
c rystallis
c et</w>
c atch</w>
brok erage</w>
be forehand</w>
bar cla
back- ups</w>
b ul
b s</w>
ay ment
att ack</w>
at u
asy mmetric</w>
as í</w>
arch itec
ar twork</w>
ar ti
ar is</w>
app ellate</w>
ap an</w>
anticip ate</w>
anti- malware</w>
ans wer</w>
analy tical</w>
an ts
an tra</w>
an no</w>
an nex</w>
am o</w>
aliz e</w>
ali ation</w>
al ph
al -
ake lijke</w>
ag ue</w>
advis or
adap ted</w>
ad h
accru als</w>
accoun tant</w>
accoun table</w>
a uth
a res</w>
a me
________________________________ _____________________</w>
____________________ _Name</w>
Wh it
We b</w>
WOR K
WH C</w>
W est
W ater
W at
W ard</w>
W J</w>
Vo eux</w>
Vehic le</w>
V incent</w>
V /
V .
Undertak ing
US ES</w>
UR THER</w>
UR BAN</w>
UP ON</w>
UNC TIVE</w>
U. K.</w>
U r
U -
Trus ts</w>
Tot emic</w>
Third- party</w>
Ta king</w>
Ta ke</w>
TRANSAC TIONS</w>
TOR T</w>
TIM E</w>
TI AL</w>
TAR GET
TARGET 2</w>
T UN
T OR</w>
T D</w>
Stut tgart</w>
Step h
St ar
St an
Si milar</w>
Si er
Seg uros</w>
SW I
STAT US</w>
SQU ARE</w>
SIGNAT URES</w>
S.L. U</w>
S he
S MIT
SMIT H</w>
Ro ad
Res pect</w>
Rep ayment
Regul ated</w>
Red acted</w>
Rechtsanwal te</w>
Rechtsanw äl
Rec ital</w>
Re z</w>
Re visionspartnerselskab</w>
REG ATE</w>
RE LI
RELI EF</w>
R y
R od
R A</w>
Quali fied</w>
Pur pose
Pol ska</w>
Plac e/Date</w>
Pat rick</w>
PURCH ASER</w>
PAG ES</w>
P TY</w>
Oper ational</w>
Offi ce
OBLIG ORS</w>
O y</w>
O W</w>
O PERA
Nor th
Non- circumvention</w>
New Rez</w>
New Co</w>
Ne der
NOTI FI
NOTIFI ABLE</w>
NE O</w>
N s</w>
N evertheless</w>
Mul lin</w>
Min ing</w>
Mar co</w>
Map les</w>
Mad ams</w>
MACQU ARI
MACQUARI E</w>
M ur
M ost</w>
M any</w>
M ED
M ADE</w>
Lu k
Le eds</w>
LIC EN
LE ASE</w>
L- 24
L othian</w>
L im
L ess</w>
L e</w>
L Y
K ite</w>
K i
K AT
Judic ial</w>
J apan</w>
J UNCTIVE</w>
It alia</w>
Issu ed</w>
Is lamic</w>
Ir revocable</w>
Invo ice</w>
Instit utions</w>
Information /
Industr ies</w>
Indemn ities
In versi
In sofar</w>
In quiries</w>
In novations</w>
In clusion</w>
Il legal</w>
Identi ty</w>
IV A</w>
INI TIAL</w>
INCLU DE</w>
IN STITU
IN JUNCTIVE</w>
IM ER</w>
I O</w>
Here by</w>
H en
H V
Gre en
G reater</w>
G ordon</w>
G ee
G REGATE</w>
Flo or
Fern ando</w>
Fa iling</w>
FR P</w>
FOLLOW ING</w>
FOLL OW</w>
FI R
F estival</w>
F er
F URTHER</w>
F S</w>
Err ors</w>
Entit lement</w>
Enfor ceability</w>
En suring</w>
EXT ENT</w>
EXCEP T</w>
EU/ EEA</w>
E spa
E co
E WHC</w>
E T</w>
E IR
E E</w>
Du chy</w>
Develop ments</w>
De lay</w>
De duc
DV Ds</w>
DU TY</w>
DU M</w>
DISCLA IMER</w>
DI LIGENCE</w>
DER ATION</w>
DEFAUL T</w>
D ri
D omain</w>
D istressed</w>
D es</w>
D SB</w>
Cont ents</w>
Consul t</w>
Condi tional</w>
Con ciliation</w>
Co- operation</w>
Co- Investment</w>
Co öperati
Cli ent
Cla ssification</w>
Ches hire</w>
Cast ello</w>
Carve- outs</w>
Cal culations</w>
CONSU LT
CONSI DERATION</w>
CLA USES</w>
CITI GROUP</w>
C ut-off</w>
C ryptographic</w>
C NC</w>
C F</w>
C AL
C /
C/ O</w>
Bas ware</w>
Bak ery</w>
Ba ker</w>
BRI DGE</w>
BAN CA</w>
BA A</w>
B leicherweg</w>
B en
B ay</w>
B ack</w>
B S</w>
B N</w>
B L
Ave .
Ave. Suite</w>
Aut or
Aut oma
Attorne ys</w>
Associ ati</w>
Ass ist</w>
Ap preciation</w>
Ap ply</w>
Am stel
Al antra</w>
Adv anced</w>
Ad ler</w>
Acknowledg ement
Accoun tability</w>
Ac tu
Ac tive</w>
AN CY</w>
AMEND MENT</w>
AG GREGATE</w>
AG E</w>
AD SS</w>
ACQU ISI
AC TIONS</w>
AB USE</w>
A do
A dequ
A M</w>
9. No</w>
9. 6
9 WJ</w>
9 7
9 00</w>
8A U</w>
88 0</w>
800 2</w>
8. No</w>
8 8</w>
8 3</w>
70 9</w>
7. 6
7 The</w>
7 48
67 7</w>
6. 1.1</w>
6 2
50 ,000</w>
5. The</w>
5. 6
48001900 4</w>
4. In</w>
4 16</w>
300 0</w>
30 6</w>
30 3</w>
3. 1.1</w>
3 40</w>
29 8</w>
28 th</w>
28 3</w>
27 2</w>
25. 6</w>
201 8
201 2</w>
2008/ 410</w>
2/ EC</w>
2.1 In</w>
2. Obligations</w>
2. Confidentiality</w>
2. 11
2 12</w>
19. 2
19 25</w>
18 6</w>
17 7</w>
17 3</w>
17 2</w>
16 7</w>
14 7</w>
14 4</w>
14 2</w>
13 /
12. 1The</w>
11. 1.1</w>
100 22</w>
10 The</w>
10 9</w>
1.1 For</w>
1. We</w>
1. 5
1. 4
1. 20</w>
00 000
00 00
0 18
- 0
ür ger
ürger liches</w>
z er</w>
z bu
zbu ch</w>
vulner ability</w>
var o</w>
un ior</w>
un intended</w>
un fairly</w>
transac tional</w>
trans pa
trac k</w>
to red</w>
timesc ales</w>
ti mate</w>
t esti
testi mon
survi ves</w>
superse ding</w>
suff ers</w>
sub contracted</w>
soci et
shi pping</w>
sharehol ding</w>
saf ely</w>
s ses</w>
s es
s ay</w>
resign ed</w>
ques tionnaire</w>
qu i</w>
provision ing</w>
pro vis
pres enting</w>
premi ums</w>
per t</w>
p lo
oper ators</w>
on- sale</w>
occas ion
occasion ed</w>
neg atively</w>
n ers</w>
n ationally</w>
mu badal
mubadal a.
mis ation</w>
manag es</w>
m less</w>
lop py</w>
li ates</w>
ke ys</w>
judic e</w>
judg ed</w>
jour n
j unior</w>
it s
ir recoverable</w>
ipi ent</w>
inter vention</w>
in ets</w>
in appropriately</w>
ic les</w>
haz ardous</w>
ga ined</w>
g uration</w>
g ave</w>
f loppy</w>
ex act</w>
eset zbuch</w>
er as
eras ing</w>
entit les</w>
downlo ading</w>
dou b
dis tributor</w>
dis cour
discour age</w>
dis as
disas ters</w>
dis advantage</w>
der den
derden beding</w>
defici encies</w>
d ynam
cy ber
cup ation</w>
correspon dent</w>
compens atory</w>
co- operating</w>
cab inets</w>
c i</w>
bre vi
benefi ting</w>
b io
altern atives</w>
administr ators</w>
ad ed</w>
above- mentioned</w>
ab sent</w>
________________________ __
________________ ________________________________</w>
________________ ______________________________</w>
Ul timate</w>
TRANSF ER</w>
Re -
RU P
R B
RB C
RBC CM</w>
P res
Oc cupation</w>
O/ IEC</w>
M E</w>
Ke eping</w>
K CM</w>
Ju li
IS O</w>
IS O/IEC</w>
G esetzbuch</w>
Fac simile</w>
FIT NESS</w>
Enter prises</w>
Enh anced</w>
D KCM</w>
Cross roads</w>
Confi guration</w>
B ürgerliches</w>
B ad</w>
B D</w>
Affili ate
AC I
A sh
8 7</w>
6 5
5 7
4. 6</w>
27 00
2 5.1</w>
2 12.
................................ .......................................</w>
， 以
（ 香港
违 反
要 求
补 救
补救 措施
的 目的
法律 、
法 规
提 供
所 有
。 我们
………………………………………… ……………………………</w>
………… ………</w>
………… .
———— ————
‎ 9.3
‎9.3 ‎</w>
‎ 7.2</w>
‎ 6.2</w>
‎ 3.6</w>
‎ 24.2</w>
‎ 2.7</w>
‎ 2.5</w>
‎ 2.2</w>
‎ 2.1</w>
‎ 2.1.2</w>
‎ 12.4</w>
‎ 12.1</w>
явля ется</w>
ы ми</w>
щи м</w>
чес ко
чес к
у м
у ль
уль т
тако й</w>
т реб
со дер
пра в
пол ож
по ль
поль з
п ор
п ер
п е
ност ь</w>
ност и</w>
но в
м у</w>
л я</w>
ком мер
каз ан
ка к</w>
ка к
ка жд
к о</w>
ж е</w>
е й</w>
е го</w>
г ра
в ключ
в ест
бит ра
б ыт
ат е</w>
á n</w>
£1 m</w>
£ 3
£ 100,000</w>
zz o</w>
zz ara</w>
zi on
z ug
zug unsten</w>
z ip</w>
z el
z aw
ys ic
ysic ian</w>
ys cott</w>
yk j
y g
yg g</w>
y .
x v</w>
x iii</w>
x D</w>
x D-
xD- Pic
xD-Pic ture</w>
www. open
www.open sour
www.opensour ce
www.opensource .
www.opensource. org</w>
www. BlackRock
www.BlackRock .com</w>
workman like</w>
wor ms</w>
will /
will/ may</w>
wi .com</w>
who w</w>
week ly</w>
warran ted</w>
w oul
woul d/
would/ may</w>
w ei
wei gh</w>
w earing</w>
w ants</w>
w agen</w>
vo or</w>
vis it
visit or</w>
vir us
virus /
virus/ anti-malware</w>
vin cial</w>
vigil ance</w>
vide ot
videot ap
videotap e</w>
vicari ous</w>
vi ro
viro co</w>
veter an</w>
ves cia</w>
ver sus</w>
ver ordnung</w>
vennoot schap
ven ience</w>
ve- year</w>
ve l</w>
var ying</w>
var ies</w>
valid ating</w>
vac ancy</w>
v endor
vendor -
vendor- recommended</w>
v een</w>
v ay</w>
utili ties</w>
usi ons</w>
us z</w>
us anne</w>
uro or</w>
ur g</w>
up dat
updat es/
updates/ extensions</w>
uniqu ely</w>
under way</w>
und led</w>
unanim ously</w>
unanim ous</w>
un to</w>
un restricted</w>
un lawfulness</w>
un hill</w>
un drawn</w>
un desirable</w>
un certain
uncertain ties</w>
un b
unb undled</w>
un anticipated</w>
umer ic</w>
umer ated</w>
um ert</w>
ul o</w>
uc tant</w>
uar ong</w>
u gia</w>
twitter .com/
tw o-
two- ti
two-ti ered</w>
ts/ comments</w>
trans late</w>
tran che</w>
tra de-
tr usions</w>
tout e</w>
tot ally</w>
to s</w>
to do</w>
tiz ed</w>
tion n
tim al
timal ware</w>
tic ks</w>
ti on-
ti gh
tigh tly</w>
ti e</w>
ther ap
the w</w>
the ore
theore tically</w>
terior ation</w>
temp ting</w>
teleph ony</w>
te lope</w>
tch en
tchen ko</w>
tail ored</w>
tab les
tab le
table ts</w>
ta d
t à</w>
t ung</w>
t orts</w>
t k</w>
t ester</w>
t Media</w>
sy n
suspic ion</w>
sur rep
surrep ti
sur charge</w>
sup pression</w>
summar ize</w>
summ arise</w>
succe eds</w>
suc cess</w>
subsi dy</w>
sub missions</w>
strateg ias</w>
strai ght</w>
strai ght
straight forward</w>
spread sheet</w>
si de
side LondonSE1</w>
si ano</w>
shred ders</w>
shred ded</w>
sen za</w>
seiz ure</w>
seg ment</w>
secu red
secured .com</w>
se c</w>
se a</w>
scru b
scrub bed</w>
sav ings</w>
sa ire</w>
s. r.
s we
s take</w>
s sive</w>
s ound</w>
s h</w>
s cripts</w>
s ak
s .com</w>
ross -up</w>
ro s</w>
ro red</w>
ro mi
ro mann</w>
ro c
rit on</w>
rit a</w>
ris p
ri p
rip tchenko</w>
ri k</w>
revis e</w>
revel ación</w>
responsi veness</w>
respons abilit
resp ecting</w>
res isted</w>
rep ute</w>
rep a
repa irs</w>
remot eness</w>
rela tives</w>
rel uctant</w>
recogn iz
recogniz able</w>
recal cul
reasonab l</w>
real -time</w>
re- registering</w>
re u
re organise</w>
re mitted</w>
re me</w>
re k
re drawn</w>
re distribution</w>
re designated</w>
re alisation</w>
re -</w>
ran t</w>
r è
quo ting</w>
quali fies</w>
qual ities</w>
pued a</w>
publicly- held</w>
public ations</w>
pub l</w>
provision ally</w>
provis o</w>
prohib iti
prohibiti vely</w>
pro- rata</w>
pro vincial</w>
pro ven</w>
pro sec
pri ori
priori tized</w>
pri ma</w>
pres sions</w>
prejudic ial</w>
preg n
pregn ancy</w>
pre- funding</w>
pre lu
prelu de</w>
pre dic
pre condition</w>
pr or
pror ated</w>
post- retirement</w>
post- mortem</w>
post mortem</w>
pos ts/comments</w>
pol Re
polRe C</w>
po aching</w>
pers ed</w>
perpe trated</w>
per tains</w>
pend ency</w>
pen cer</w>
pati ent</w>
party/ source</w>
p- dead</w>
over head</w>
out sourced</w>
out set</w>
ous ing</w>
our cing</w>
ou tages</w>
ou red</w>
os p
os it</w>
ors at
orsat z</w>
ori ent
orient ation</w>
ordin ator</w>
oper ati
operati veness</w>
ong k
ongk ong</w>
on- law</w>
om b</w>
ol tà</w>
ol lar</w>
okrun ners</w>
off site</w>
off ending</w>
occu pier</w>
o z
o vigilance</w>
o vered</w>
o .</w>
nu is
nuis ance</w>
noti ce/
notice/ communication</w>
not ebook</w>
not ar
non-con formities</w>
non-con formance</w>
non- sub-licensable</w>
non- repudiation</w>
non- profit</w>
no ther</w>
new s</w>
networ ked</w>
networ k/
network/ c
network/c abling</w>
nation alisation</w>
nar rative</w>
n iture</w>
n ev
n es</w>
n en</w>
n ella</w>
mom ento</w>
mo king</w>
mis take</w>
mis representations</w>
mis o</w>
mis appropriate</w>
mir rored</w>
minim ized</w>
mi xed</w>
mi tigation</w>
merchan tability</w>
mean ing
meaning ful</w>
mea su
me dic
medic inal</w>
mat ching</w>
market place</w>
market -
mand ates</w>
mand at
man ten
machin es</w>
m transport</w>
m ing
ly- available</w>
long -form</w>
log ged</w>
lo pers</w>
liquid ateur</w>
lim b</w>
li gen
ligen ce
ligence -based</w>
li er</w>
let t</w>
leg e</w>
lear ns</w>
le m</w>
le e</w>
le ads</w>
laun ched</w>
las ted</w>
lan te</w>
la gh
lagh er</w>
la gen</w>
la ble</w>
l é
l secured.com</w>
l ateral</w>
l ack
knowledg ements</w>
kno whow</w>
k ins</w>
k at
justi fies</w>
jus dem</w>
jeopar d
jeopard ise</w>
j a</w>
it é</w>
it /
istr y</w>
isclos ing</w>
is ens
isens tad
irretriev able</w>
ir á</w>
inter- relates</w>
inter- group</w>
inter rup
inter cept</w>
inter active</w>
intel ligence-based</w>
instru mental</w>
ins pired</w>
inno vations</w>
initi o</w>
initi alling</w>
inheren t</w>
infring ed</w>
indic a</w>
in trusions</w>
in o</w>
in ity</w>
in discriminate</w>
in consist
inconsist encies</w>
in calcu
incalcu lable</w>
in ations</w>
impro vement</w>
ild b
ildb az
ildbaz aar</w>
il li
il a</w>
ig gins</w>
ific ant</w>
ide lity</w>
i p
i ones</w>
i .</w>
hypoth etical</w>
hot el</w>
hor ses</w>
high ly-available</w>
here unto</w>
helm sford</w>
he er</w>
he dged</w>
harmac ovigilance</w>
har assment</w>
ha ya</w>
h ost</w>
h ol</w>
guar ds</w>
gre ssive</w>
gradu ally</w>
gr atu
govern s</w>
gn i</w>
genuin ely</w>
gener is</w>
ge rechte
g rup
g li</w>
g ar
g ados</w>
fur niture</w>
function ing</w>
fort une</w>
fon ds</w>
fit ting</w>
fic ation/
fication/ Professional</w>
fi ve-year</w>
fall back</w>
fac turing</w>
fac oltà</w>
f ten</w>
f oul</w>
f laws</w>
f lag</w>
extre me</w>
extinguis hed</w>
exp ed
exped ite</w>
excer pt</w>
excep ting</w>
excep ted</w>
ex ion</w>
ex chang
exchang eable</w>
event u
ett es</w>
et t</w>
et Co</w>
esti ón</w>
ess ation</w>
escal ating</w>
es sel</w>
ere n</w>
equ ity-
ep ik</w>
enti s</w>
enti ced</w>
ent ons</w>
ent ary</w>
ens on</w>
endeav oured</w>
end o</w>
end is</w>
en umerated</w>
emp ts</w>
ement General</w>
embrac ed</w>
emb ygg</w>
ell wagen</w>
el ine</w>
eis s</w>
eir a</w>
eg and</w>
effic acy</w>
ed ent
ection/ suppression</w>
econom y</w>
ec t
ec ipient</w>
ear n</w>
e maker</w>
e lapse</w>
e jusdem</w>
e es
e duc
educ ational</w>
e astdi
eastdi lsecured.com</w>
dur ante</w>
du mping</w>
dro p-dead</w>
draw ers</w>
docu mento</w>
diver t</w>
dispos izioni</w>
disk ettes</w>
disclos ees</w>
dis tinguis
dis proportionate</w>
dis persed</w>
dis ing</w>
dis claimed</w>
dis cer
discer ned</w>
dis car
discar ded</w>
dis applied</w>
dis application</w>
dis abilities</w>
direct ement</w>
direc tives</w>
diminis hed</w>
dili gent</w>
dig it
dic ha</w>
di vestment</w>
di ri
di rekt</w>
devi ation</w>
devi ate</w>
develo pers</w>
det ection/suppression</w>
desk top</w>
design ee</w>
des ks</w>
der son</w>
deno ting</w>
demonstr able</w>
defic its</w>
def enders</w>
deb tor</w>
deb at
debat able</w>
de- recognition</w>
de- identify</w>
de- Related</w>
de value</w>
de tt
de terioration</w>
de part</w>
de activated</w>
d son</w>
d al</w>
d .
cu b
cub icles</w>
cross- over</w>
cri be</w>
credit -
cre ative</w>
cover ages</w>
coordin ated</w>
conve ys</w>
contribu ting</w>
contrav ene</w>
cont en
consul ts</w>
consul ted</w>
conserv ator</w>
conser vation</w>
cons traint</w>
confiden cialidad</w>
con du
compro me
compliance- monitoring</w>
comp ound</w>
commo tion</w>
commit ting</w>
commis saire</w>
comm on-law</w>
com fort</w>
com bating</w>
code- named</w>
co- operative</w>
co operativeness</w>
co hol</w>
co ded</w>
co ach</w>
clin ical</w>
cle an
clean ed</w>
cir cles</w>
cipl es
chi ef</w>
chequ e</w>
check lists</w>
charac ters</w>
cell ular</w>
capit al
cap ex</w>
cancel ed</w>
can didates</w>
ca u
c z
c ro
c endis</w>
by te</w>
buy back</w>
bo oking</w>
bo a</w>
bloc ked</w>
blig o</w>
birth days</w>
bin s</w>
bin aries</w>
bene fitting</w>
beh est</w>
be t</w>
barcla y</w>
b omb</w>
b les</w>
ay lor</w>
avi er</w>
auxili aries</w>
ation als</w>
ation ale</w>
ation /</w>
ati sf
ati e</w>
at s</w>
at es
at an</w>
assess able</w>
ass embly</w>
ascer tained</w>
asbest os</w>
as ide</w>
as e
as cribe</w>
arrang ers</w>
ar agr
aragr a</w>
approxi mates</w>
appoin ting</w>
applic abile</w>
anticip ates</w>
anti- virus/anti-malware</w>
announ ced</w>
annex es</w>
an umeric</w>
an timalware</w>
an ter
ampi ga
amic able</w>
alph anumeric</w>
algorith m</w>
al t</w>
al cun</w>
ak age</w>
agre ement
ag gressive</w>
affirma tive</w>
adh ering</w>
ade lante</w>
addres sing</w>
adap tations</w>
actu ary</w>
acti vation</w>
act Flash</w>
achi eves</w>
ac ter
ac es</w>
ab road</w>
ab brevi
a. m</w>
a thon</w>
a qu
a er
a Card</w>
________________________________ ____________________</w>
________________________________ _________________</w>
________________________ ___
______ _
___ .
Z ampiga
Z O</w>
XX XX
X V</w>
Work/ Invention</w>
Wai vers
WIT TER</w>
WI LLI
WAIV ES</w>
WAI VER
WAIVER S</w>
WA N</w>
W1 U</w>
W1 S</w>
W/ BAU</w>
W-8 IMY</w>
W et</w>
W W</w>
W EV
WEV ER</w>
W CA</w>
W ANE
WANE K</w>
Vo ting</w>
Vi vescia</w>
Veri fication/Professional</w>
Val idation</w>
VEN D
VEN AN
VENAN TS</w>
VE LO
VELO P
VELOP MENT</w>
V/ SA</w>
V orsatz</w>
V essel</w>
V OC
V ING</w>
Up dating</w>
Up dates</w>
Uni polReC</w>
Undertak ings
Un successful</w>
Un disclosed</w>
US -
UR L</w>
UN NING</w>
UK SC</w>
U R</w>
Tur key</w>
Tra ditionally</w>
Tra de-Related</w>
To ols</w>
Time tables
Th eiss</w>
Temp late</w>
Telec om</w>
Te ams</w>
TU I</w>
TRIP s</w>
TORONTO -
TORONTO- DOMINION</w>
TI RE
TIRE MENT</w>
TH IER
THIER RY</w>
T riton</w>
T el-
T ap
T WITTER</w>
T W
T T</w>
Syst embygg</w>
Swed bank</w>
Super Office</w>
Sup reme</w>
Sub service</w>
Sub part</w>
Street 40</w>
Steph enson</w>
Step hen</w>
Stat utory</w>
Stan ley</w>
Sta r</w>
Sta ffing</w>
St ocks</w>
St ellwagen</w>
St art</w>
Speci ally</w>
Sp e
Sp A</w>
Sol vay</w>
Smar tMedia</w>
Sk riptchenko</w>
Signed .……………………………………………</w>
Sign ificant</w>
Sier vo</w>
Shi va</w>
Shar i</w>
Servic ing</w>
Ser ver</w>
Security ®</w>
Sch er</w>
Satur n</w>
San os</w>
SUBCONTRAC TOR</w>
SUB SI
SUBSI DI
SUBSIDI ARIES</w>
SU IS
SUIS SE</w>
ST OM
SP EN
SPEN C
SPENC ER</w>
SM E</w>
SIGNAT ORY</w>
SI G
SIG NE
SEC TIONS</w>
SC HER</w>
S. V.</w>
S tri
S ticks</w>
S ter
S pr
S pencer</w>
S ourcing</w>
S lo
S eek</w>
S can</w>
S atisf
S anitization</w>
S VM</w>
Rop emaker</w>
Ro yscott</w>
River sideLondonSE1</w>
Rev .1</w>
Restric tions
Requ isite</w>
Requ ire</w>
Rep etCo</w>
Rei ms</w>
Rei gate</w>
Recei ved</w>
Rec ru
[...]
